{
  "version": "1.0",
  "truncation": null,
  "padding": null,
  "added_tokens": [
    {
      "id": 0,
      "content": "[UNK]",
      "single_word": false,
      "lstrip": false,
      "rstrip": false,
      "normalized": false,
      "special": true
    },
    {
      "id": 1,
      "content": "[CLS]",
      "single_word": false,
      "lstrip": false,
      "rstrip": false,
      "normalized": false,
      "special": true
    },
    {
      "id": 2,
      "content": "[SEP]",
      "single_word": false,
      "lstrip": false,
      "rstrip": false,
      "normalized": false,
      "special": true
    },
    {
      "id": 3,
      "content": "[PAD]",
      "single_word": false,
      "lstrip": false,
      "rstrip": false,
      "normalized": false,
      "special": true
    },
    {
      "id": 4,
      "content": "[MASK]",
      "single_word": false,
      "lstrip": false,
      "rstrip": false,
      "normalized": false,
      "special": true
    }
  ],
  "normalizer": null,
  "pre_tokenizer": {
    "type": "Whitespace"
  },
  "post_processor": null,
  "decoder": null,
  "model": {
    "type": "BPE",
    "dropout": null,
    "unk_token": "[UNK]",
    "continuing_subword_prefix": null,
    "end_of_word_suffix": null,
    "fuse_unk": false,
    "byte_fallback": false,
    "vocab": {
      "[UNK]": 0,
      "[CLS]": 1,
      "[SEP]": 2,
      "[PAD]": 3,
      "[MASK]": 4,
      "!": 5,
      "\"": 6,
      "#": 7,
      "$": 8,
      "%": 9,
      "&": 10,
      "'": 11,
      "(": 12,
      ")": 13,
      "*": 14,
      "+": 15,
      ",": 16,
      "-": 17,
      ".": 18,
      "/": 19,
      "0": 20,
      "1": 21,
      "2": 22,
      "3": 23,
      "4": 24,
      "5": 25,
      "6": 26,
      "7": 27,
      "8": 28,
      "9": 29,
      ":": 30,
      ";": 31,
      "<": 32,
      "=": 33,
      ">": 34,
      "?": 35,
      "@": 36,
      "A": 37,
      "B": 38,
      "C": 39,
      "D": 40,
      "E": 41,
      "F": 42,
      "G": 43,
      "H": 44,
      "I": 45,
      "J": 46,
      "K": 47,
      "L": 48,
      "M": 49,
      "N": 50,
      "O": 51,
      "P": 52,
      "Q": 53,
      "R": 54,
      "S": 55,
      "T": 56,
      "U": 57,
      "V": 58,
      "W": 59,
      "X": 60,
      "Y": 61,
      "Z": 62,
      "[": 63,
      "\\": 64,
      "]": 65,
      "_": 66,
      "`": 67,
      "a": 68,
      "b": 69,
      "c": 70,
      "d": 71,
      "e": 72,
      "f": 73,
      "g": 74,
      "h": 75,
      "i": 76,
      "j": 77,
      "k": 78,
      "l": 79,
      "m": 80,
      "n": 81,
      "o": 82,
      "p": 83,
      "q": 84,
      "r": 85,
      "s": 86,
      "t": 87,
      "u": 88,
      "v": 89,
      "w": 90,
      "x": 91,
      "y": 92,
      "z": 93,
      "{": 94,
      "|": 95,
      "}": 96,
      "~": 97,
      "¡": 98,
      "¢": 99,
      "£": 100,
      "¤": 101,
      "¥": 102,
      "¦": 103,
      "§": 104,
      "¨": 105,
      "©": 106,
      "ª": 107,
      "«": 108,
      "¬": 109,
      "­": 110,
      "®": 111,
      "¯": 112,
      "°": 113,
      "±": 114,
      "²": 115,
      "³": 116,
      "´": 117,
      "µ": 118,
      "¶": 119,
      "·": 120,
      "¸": 121,
      "¹": 122,
      "º": 123,
      "»": 124,
      "¼": 125,
      "½": 126,
      "¾": 127,
      "¿": 128,
      "Â": 129,
      "Ã": 130,
      "Ä": 131,
      "Å": 132,
      "É": 133,
      "Ê": 134,
      "Ñ": 135,
      "Ò": 136,
      "á": 137,
      "â": 138,
      "ã": 139,
      "ä": 140,
      "å": 141,
      "æ": 142,
      "ç": 143,
      "è": 144,
      "é": 145,
      "î": 146,
      "ï": 147,
      "ð": 148,
      "Œ": 149,
      "œ": 150,
      "Š": 151,
      "š": 152,
      "Ÿ": 153,
      "Ž": 154,
      "ž": 155,
      "ƒ": 156,
      "ˆ": 157,
      "˜": 158,
      "–": 159,
      "‘": 160,
      "’": 161,
      "‚": 162,
      "“": 163,
      "”": 164,
      "„": 165,
      "†": 166,
      "‡": 167,
      "•": 168,
      "…": 169,
      "‰": 170,
      "‹": 171,
      "›": 172,
      "€": 173,
      "™": 174,
      "he": 175,
      "an": 176,
      "the": 177,
      "ed": 178,
      "and": 179,
      "to": 180,
      "in": 181,
      "re": 182,
      "ou": 183,
      "wa": 184,
      "it": 185,
      "ha": 186,
      "er": 187,
      "was": 188,
      "om": 189,
      "en": 190,
      "on": 191,
      "ar": 192,
      "The": 193,
      "is": 194,
      "ing": 195,
      "il": 196,
      "sa": 197,
      "id": 198,
      "le": 199,
      "ay": 200,
      "im": 201,
      "lo": 202,
      "al": 203,
      "st": 204,
      "or": 205,
      "her": 206,
      "He": 207,
      "She": 208,
      "ir": 209,
      "th": 210,
      "They": 211,
      "be": 212,
      "ne": 213,
      "hat": 214,
      "ver": 215,
      "ut": 216,
      "se": 217,
      "ke": 218,
      "at": 219,
      "no": 220,
      "ck": 221,
      "ld": 222,
      "ce": 223,
      "said": 224,
      "am": 225,
      "ve": 226,
      "ri": 227,
      "ily": 228,
      "she": 229,
      "pl": 230,
      "ith": 231,
      "pp": 232,
      "of": 233,
      "ad": 234,
      "with": 235,
      "ig": 236,
      "his": 237,
      "Lily": 238,
      "un": 239,
      "you": 240,
      "ked": 241,
      "so": 242,
      "ly": 243,
      "day": 244,
      "very": 245,
      "we": 246,
      "ome": 247,
      "li": 248,
      "my": 249,
      "that": 250,
      "go": 251,
      "up": 252,
      "ow": 253,
      "ant": 254,
      "ch": 255,
      "es": 256,
      "as": 257,
      "had": 258,
      "play": 259,
      "they": 260,
      "for": 261,
      "mom": 262,
      "el": 263,
      "nd": 264,
      "ould": 265,
      "all": 266,
      "end": 267,
      "bo": 268,
      "happ": 269,
      "ent": 270,
      "want": 271,
      "itt": 272,
      "ok": 273,
      "are": 274,
      "ge": 275,
      "tim": 276,
      "It": 277,
      "out": 278,
      "do": 279,
      "not": 280,
      "ro": 281,
      "ound": 282,
      "ittle": 283,
      "ther": 284,
      "time": 285,
      "little": 286,
      "there": 287,
      "ry": 288,
      "ht": 289,
      "ra": 290,
      "sh": 291,
      "happy": 292,
      "sm": 293,
      "big": 294,
      "but": 295,
      "ys": 296,
      "fri": 297,
      "ake": 298,
      "saw": 299,
      "friend": 300,
      ".\"": 301,
      "ter": 302,
      "ack": 303,
      "thing": 304,
      "some": 305,
      "ul": 306,
      "One": 307,
      "ide": 308,
      "one": 309,
      "Tim": 310,
      "!\"": 311,
      "On": 312,
      "ug": 313,
      "ved": 314,
      "were": 315,
      "Once": 316,
      "ho": 317,
      "car": 318,
      "him": 319,
      "fe": 320,
      "irl": 321,
      "wanted": 322,
      "Tom": 323,
      "pe": 324,
      "girl": 325,
      "upon": 326,
      "ful": 327,
      "them": 328,
      "Ben": 329,
      "ur": 330,
      "ind": 331,
      "their": 332,
      "ill": 333,
      "ag": 334,
      "smil": 335,
      "did": 336,
      "could": 337,
      "me": 338,
      "co": 339,
      "have": 340,
      "ex": 341,
      "mo": 342,
      "hen": 343,
      "But": 344,
      "hel": 345,
      "can": 346,
      "rom": 347,
      "went": 348,
      "ted": 349,
      "new": 350,
      "od": 351,
      "de": 352,
      "nam": 353,
      "?\"": 354,
      "help": 355,
      "friends": 356,
      "um": 357,
      "ab": 358,
      "hed": 359,
      "way": 360,
      "back": 361,
      "fel": 362,
      "ain": 363,
      "like": 364,
      "You": 365,
      "fun": 366,
      "fo": 367,
      "side": 368,
      "man": 369,
      "ark": 370,
      "ic": 371,
      "too": 372,
      "ran": 373,
      "ght": 374,
      "po": 375,
      "Timmy": 376,
      "star": 377,
      "smiled": 378,
      "named": 379,
      "loved": 380,
      "low": 381,
      "loo": 382,
      "asked": 383,
      "et": 384,
      "Mom": 385,
      "ard": 386,
      "la": 387,
      "felt": 388,
      "sto": 389,
      "see": 390,
      "looked": 391,
      "ick": 392,
      "own": 393,
      "around": 394,
      "pr": 395,
      "ame": 396,
      "make": 397,
      "ure": 398,
      "bir": 399,
      "would": 400,
      "wor": 401,
      "fa": 402,
      "boy": 403,
      "now": 404,
      "ong": 405,
      "other": 406,
      "bird": 407,
      "gr": 408,
      "park": 409,
      "ll": 410,
      "op": 411,
      "what": 412,
      "ice": 413,
      "mad": 414,
      "tre": 415,
      ",\"": 416,
      "away": 417,
      "gether": 418,
      "ca": 419,
      "ss": 420,
      "dd": 421,
      "says": 422,
      "started": 423,
      "oud": 424,
      "came": 425,
      "made": 426,
      "ight": 427,
      "something": 428,
      "together": 429,
      "na": 430,
      "get": 431,
      "ited": 432,
      "look": 433,
      "put": 434,
      "sad": 435,
      "exc": 436,
      "got": 437,
      "from": 438,
      "ts": 439,
      "scar": 440,
      "ach": 441,
      "if": 442,
      "home": 443,
      "mu": 444,
      "again": 445,
      "ue": 446,
      "ie": 447,
      "wal": 448,
      "good": 449,
      "who": 450,
      "found": 451,
      "ried": 452,
      "then": 453,
      "dec": 454,
      "pped": 455,
      "ci": 456,
      "more": 457,
      "when": 458,
      "hug": 459,
      "ep": 460,
      "playing": 461,
      "ought": 462,
      "king": 463,
      "ally": 464,
      "ave": 465,
      "things": 466,
      "by": 467,
      "excited": 468,
      "liked": 469,
      "ru": 470,
      "Sam": 471,
      "der": 472,
      "ous": 473,
      "An": 474,
      "ara": 475,
      "ided": 476,
      "ny": 477,
      "us": 478,
      "decided": 479,
      "ouse": 480,
      "every": 481,
      "your": 482,
      "care": 483,
      "scared": 484,
      "dog": 485,
      "down": 486,
      "use": 487,
      "ax": 488,
      "find": 489,
      "sha": 490,
      "pre": 491,
      "than": 492,
      "ac": 493,
      "take": 494,
      "spe": 495,
      "We": 496,
      "Sara": 497,
      "ate": 498,
      "feel": 499,
      "jo": 500,
      "ang": 501,
      "udd": 502,
      "Anna": 503,
      "dad": 504,
      "ways": 505,
      "arn": 506,
      "wo": 507,
      "Max": 508,
      "will": 509,
      "our": 510,
      "clo": 511,
      "here": 512,
      "didn": 513,
      "always": 514,
      "about": 515,
      "took": 516,
      "bb": 517,
      "ite": 518,
      "mommy": 519,
      "qu": 520,
      "toys": 521,
      "ise": 522,
      "old": 523,
      "te": 524,
      "ma": 525,
      "So": 526,
      "know": 527,
      "outside": 528,
      "tree": 529,
      "ers": 530,
      "thought": 531,
      "learn": 532,
      "ive": 533,
      "sor": 534,
      "ust": 535,
      "ened": 536,
      "wh": 537,
      "room": 538,
      "fore": 539,
      "cat": 540,
      "ty": 541,
      "Jo": 542,
      "laug": 543,
      "speci": 544,
      "special": 545,
      "When": 546,
      "udden": 547,
      "knew": 548,
      "ged": 549,
      "red": 550,
      "any": 551,
      "run": 552,
      "ball": 553,
      "come": 554,
      "Her": 555,
      "pa": 556,
      "bu": 557,
      "uddenly": 558,
      "br": 559,
      "ink": 560,
      "house": 561,
      "toy": 562,
      "ish": 563,
      "never": 564,
      "fter": 565,
      "how": 566,
      "ol": 567,
      "show": 568,
      "lf": 569,
      "rd": 570,
      "ist": 571,
      "Jack": 572,
      "sorry": 573,
      "cre": 574,
      "bl": 575,
      "sw": 576,
      "much": 577,
      "Every": 578,
      "hand": 579,
      "ia": 580,
      "dre": 581,
      "careful": 582,
      "ven": 583,
      "able": 584,
      "cle": 585,
      "sk": 586,
      "gave": 587,
      "sun": 588,
      "long": 589,
      "into": 590,
      "tried": 591,
      "inside": 592,
      "water": 593,
      "told": 594,
      "cl": 595,
      "this": 596,
      "over": 597,
      "box": 598,
      "ta": 599,
      "proud": 600,
      "couldn": 601,
      "heard": 602,
      "dy": 603,
      "ear": 604,
      "each": 605,
      "tter": 606,
      "Let": 607,
      "sp": 608,
      "love": 609,
      "eat": 610,
      "gre": 611,
      "Suddenly": 612,
      "ump": 613,
      "pick": 614,
      "led": 615,
      "played": 616,
      "pret": 617,
      "Then": 618,
      "Mia": 619,
      "ion": 620,
      "cause": 621,
      "just": 622,
      "uc": 623,
      "hugged": 624,
      "off": 625,
      "unt": 626,
      "right": 627,
      "wat": 628,
      "fly": 629,
      "com": 630,
      "nice": 631,
      "And": 632,
      "From": 633,
      "pot": 634,
      "ct": 635,
      "che": 636,
      "His": 637,
      "because": 638,
      "need": 639,
      "flow": 640,
      "ile": 641,
      "many": 642,
      "That": 643,
      "exp": 644,
      "try": 645,
      "bear": 646,
      "small": 647,
      "lad": 648,
      "ving": 649,
      "ine": 650,
      "iz": 651,
      "imal": 652,
      "oug": 653,
      "animal": 654,
      "read": 655,
      "uck": 656,
      "ough": 657,
      "rabb": 658,
      "ber": 659,
      "until": 660,
      "self": 661,
      "bed": 662,
      "its": 663,
      "kind": 664,
      "per": 665,
      "learned": 666,
      "fast": 667,
      "bea": 668,
      "ket": 669,
      "better": 670,
      "call": 671,
      "vent": 672,
      "don": 673,
      "What": 674,
      "best": 675,
      "ass": 676,
      "urn": 677,
      "Yes": 678,
      "bra": 679,
      "say": 680,
      "fi": 681,
      "urt": 682,
      "explo": 683,
      "where": 684,
      "Mommy": 685,
      "gard": 686,
      "garden": 687,
      "beaut": 688,
      "let": 689,
      "even": 690,
      "fle": 691,
      "thanked": 692,
      "pt": 693,
      "laughed": 694,
      "sky": 695,
      "nt": 696,
      "yes": 697,
      "safe": 698,
      "jump": 699,
      "under": 700,
      "ell": 701,
      "ace": 702,
      "sur": 703,
      "loud": 704,
      "iny": 705,
      "ank": 706,
      "Can": 707,
      "list": 708,
      "ched": 709,
      "iful": 710,
      "beautiful": 711,
      "give": 712,
      "joy": 713,
      "lots": 714,
      "rong": 715,
      "fam": 716,
      "still": 717,
      "ama": 718,
      "animals": 719,
      "Joh": 720,
      "John": 721,
      "ning": 722,
      "rain": 723,
      "won": 724,
      "book": 725,
      "stay": 726,
      "Th": 727,
      "ree": 728,
      "both": 729,
      "turn": 730,
      "No": 731,
      "fin": 732,
      "two": 733,
      "ble": 734,
      "hard": 735,
      "bad": 736,
      "has": 737,
      "pu": 738,
      "ople": 739,
      "As": 740,
      "lived": 741,
      "Bo": 742,
      "cks": 743,
      "Luc": 744,
      "Thank": 745,
      "lea": 746,
      "Lucy": 747,
      "brave": 748,
      "app": 749,
      "keep": 750,
      "walked": 751,
      "hurt": 752,
      "ground": 753,
      "should": 754,
      "tru": 755,
      "ort": 756,
      "igh": 757,
      "ished": 758,
      "surpr": 759,
      "angry": 760,
      "family": 761,
      "people": 762,
      "flew": 763,
      "called": 764,
      "After": 765,
      "rm": 766,
      "con": 767,
      "soon": 768,
      "door": 769,
      "Dad": 770,
      "kept": 771,
      "real": 772,
      "share": 773,
      "arm": 774,
      "ook": 775,
      "pic": 776,
      "ised": 777,
      "imp": 778,
      "going": 779,
      "ane": 780,
      "ting": 781,
      "clos": 782,
      "pretty": 783,
      "sl": 784,
      "clean": 785,
      "lot": 786,
      "advent": 787,
      "cu": 788,
      "ummy": 789,
      "noise": 790,
      "bro": 791,
      "opened": 792,
      "mor": 793,
      "shiny": 794,
      "ste": 795,
      "wind": 796,
      "explore": 797,
      "cry": 798,
      "doll": 799,
      "place": 800,
      "before": 801,
      "illy": 802,
      "feeling": 803,
      "dra": 804,
      "also": 805,
      "les": 806,
      "lie": 807,
      "€™": 808,
      "ild": 809,
      "ied": 810,
      "idea": 811,
      "nodd": 812,
      "Bob": 813,
      "nex": 814,
      "colo": 815,
      "nodded": 816,
      "art": 817,
      "tal": 818,
      "picked": 819,
      "color": 820,
      "next": 821,
      "while": 822,
      "walking": 823,
      "set": 824,
      "fish": 825,
      "head": 826,
      "ask": 827,
      "clim": 828,
      "face": 829,
      "work": 830,
      "thr": 831,
      "uch": 832,
      "ture": 833,
      "ies": 834,
      "adventure": 835,
      "ess": 836,
      "smile": 837,
      "less": 838,
      "aybe": 839,
      "iced": 840,
      "ak": 841,
      "looking": 842,
      "mber": 843,
      "being": 844,
      "hair": 845,
      "dif": 846,
      "ever": 847,
      "food": 848,
      "walk": 849,
      "picture": 850,
      "think": 851,
      "night": 852,
      "used": 853,
      "vo": 854,
      "Spot": 855,
      "eyes": 856,
      "ught": 857,
      "listen": 858,
      "stopped": 859,
      "after": 860,
      "Do": 861,
      "member": 862,
      "flowers": 863,
      "year": 864,
      "weet": 865,
      "wonder": 866,
      "repl": 867,
      "great": 868,
      "Sue": 869,
      "wait": 870,
      "shout": 871,
      "ries": 872,
      "import": 873,
      "blue": 874,
      "enjoy": 875,
      "blo": 876,
      "noticed": 877,
      "forest": 878,
      "hands": 879,
      "ring": 880,
      "mon": 881,
      "ized": 882,
      "dis": 883,
      "near": 884,
      "irst": 885,
      "quick": 886,
      "bye": 887,
      "important": 888,
      "remember": 889,
      "sound": 890,
      "Look": 891,
      "slide": 892,
      "replied": 893,
      "sho": 894,
      "amaz": 895,
      "lease": 896,
      "watch": 897,
      "showed": 898,
      "okay": 899,
      "cho": 900,
      "leave": 901,
      "gan": 902,
      "top": 903,
      "voice": 904,
      "ip": 905,
      "Sarah": 906,
      "This": 907,
      "fere": 908,
      "tell": 909,
      "cook": 910,
      "differe": 911,
      "llow": 912,
      "mean": 913,
      "swing": 914,
      "cream": 915,
      "rest": 916,
      "stick": 917,
      "watched": 918,
      "sing": 919,
      "cake": 920,
      "bright": 921,
      "follow": 922,
      "truck": 923,
      "everyone": 924,
      "pul": 925,
      "store": 926,
      "cou": 927,
      "bow": 928,
      "been": 929,
      "sn": 930,
      "boat": 931,
      "strong": 932,
      "quickly": 933,
      "sure": 934,
      "ner": 935,
      "Jane": 936,
      "rabbit": 937,
      "stand": 938,
      "different": 939,
      "tor": 940,
      "Maybe": 941,
      "curi": 942,
      "goodbye": 943,
      "became": 944,
      "ward": 945,
      "high": 946,
      "closer": 947,
      "bre": 948,
      "oft": 949,
      "does": 950,
      "mag": 951,
      "unny": 952,
      "warm": 953,
      "ff": 954,
      "Joe": 955,
      "ance": 956,
      "ung": 957,
      "curious": 958,
      "mis": 959,
      "ila": 960,
      "ph": 961,
      "laugh": 962,
      "fav": 963,
      "andma": 964,
      "three": 965,
      "dress": 966,
      "Lila": 967,
      "tw": 968,
      "pie": 969,
      "ond": 970,
      "leep": 971,
      "open": 972,
      "anymore": 973,
      "ready": 974,
      "first": 975,
      "ached": 976,
      "flower": 977,
      "grabb": 978,
      "flo": 979,
      "butter": 980,
      "ired": 981,
      "hear": 982,
      "bit": 983,
      "In": 984,
      "kid": 985,
      "kit": 986,
      "pain": 987,
      "grabbed": 988,
      "Don": 989,
      "squ": 990,
      "ered": 991,
      "yel": 992,
      "par": 993,
      "isy": 994,
      "med": 995,
      "times": 996,
      "only": 997,
      "light": 998,
      "table": 999,
      "fell": 1000,
      "Everyone": 1001,
      "Hel": 1002,
      "tow": 1003,
      "birds": 1004,
      "deli": 1005,
      "fire": 1006,
      "jumped": 1007,
      "ft": 1008,
      "glad": 1009,
      "sand": 1010,
      "chen": 1011,
      "ster": 1012,
      "kitchen": 1013,
      "dro": 1014,
      "pare": 1015,
      "air": 1016,
      "cut": 1017,
      "rock": 1018,
      "helped": 1019,
      "stop": 1020,
      "cket": 1021,
      "tr": 1022,
      "cont": 1023,
      "cr": 1024,
      "happened": 1025,
      "key": 1026,
      "Tommy": 1027,
      "fl": 1028,
      "sees": 1029,
      "bunny": 1030,
      "shouted": 1031,
      "story": 1032,
      "bal": 1033,
      "grass": 1034,
      "ash": 1035,
      "having": 1036,
      "reached": 1037,
      "yummy": 1038,
      "prin": 1039,
      "realized": 1040,
      "brother": 1041,
      "lady": 1042,
      "draw": 1043,
      "mum": 1044,
      "shed": 1045,
      "favor": 1046,
      "sweet": 1047,
      "din": 1048,
      "ary": 1049,
      "favorite": 1050,
      "through": 1051,
      "game": 1052,
      "coming": 1053,
      "cra": 1054,
      "piece": 1055,
      "zy": 1056,
      "bor": 1057,
      "que": 1058,
      "soft": 1059,
      "really": 1060,
      "Wh": 1061,
      "began": 1062,
      "pretend": 1063,
      "Now": 1064,
      "world": 1065,
      "ins": 1066,
      "tra": 1067,
      "olly": 1068,
      "looks": 1069,
      "done": 1070,
      "wel": 1071,
      "himself": 1072,
      "magic": 1073,
      "making": 1074,
      "col": 1075,
      "rel": 1076,
      "kids": 1077,
      "duck": 1078,
      "pond": 1079,
      "ba": 1080,
      "why": 1081,
      "nts": 1082,
      "prom": 1083,
      "waved": 1084,
      "fro": 1085,
      "tired": 1086,
      "ater": 1087,
      "move": 1088,
      "fix": 1089,
      "mouse": 1090,
      "fill": 1091,
      "worry": 1092,
      "ped": 1093,
      "cars": 1094,
      "cked": 1095,
      "name": 1096,
      "Fin": 1097,
      "Wow": 1098,
      "paper": 1099,
      "parents": 1100,
      "cold": 1101,
      "Sally": 1102,
      "aisy": 1103,
      "touch": 1104,
      "ike": 1105,
      "thank": 1106,
      "funny": 1107,
      "catch": 1108,
      "seen": 1109,
      "pro": 1110,
      "ple": 1111,
      "hold": 1112,
      "stre": 1113,
      "gu": 1114,
      "another": 1115,
      "There": 1116,
      "hopped": 1117,
      "river": 1118,
      "cried": 1119,
      "ds": 1120,
      "oney": 1121,
      "doing": 1122,
      "cool": 1123,
      "blocks": 1124,
      "\".": 1125,
      "farm": 1126,
      "surprise": 1127,
      "ons": 1128,
      "age": 1129,
      "cor": 1130,
      "green": 1131,
      "uff": 1132,
      "anc": 1133,
      "years": 1134,
      "mess": 1135,
      "turned": 1136,
      "close": 1137,
      "wood": 1138,
      "floor": 1139,
      "hind": 1140,
      "sat": 1141,
      "climb": 1142,
      "full": 1143,
      "trees": 1144,
      "running": 1145,
      "lesson": 1146,
      "ppy": 1147,
      "window": 1148,
      "worked": 1149,
      "wear": 1150,
      "dark": 1151,
      "behind": 1152,
      "likes": 1153,
      "wished": 1154,
      "aby": 1155,
      "ign": 1156,
      "yellow": 1157,
      "andy": 1158,
      "ation": 1159,
      "ger": 1160,
      "bag": 1161,
      "swim": 1162,
      "happily": 1163,
      "Daisy": 1164,
      "Jim": 1165,
      "Em": 1166,
      "cast": 1167,
      "To": 1168,
      "surprised": 1169,
      "sleep": 1170,
      "frog": 1171,
      "pet": 1172,
      "butterfly": 1173,
      "Benny": 1174,
      "cious": 1175,
      "yard": 1176,
      "arri": 1177,
      "carefully": 1178,
      "Hello": 1179,
      "hole": 1180,
      "remembered": 1181,
      "lost": 1182,
      "slow": 1183,
      "held": 1184,
      "race": 1185,
      "At": 1186,
      "needed": 1187,
      "cla": 1188,
      "buy": 1189,
      "left": 1190,
      "Billy": 1191,
      "far": 1192,
      "bar": 1193,
      "reed": 1194,
      "dream": 1195,
      "fair": 1196,
      "anything": 1197,
      "spot": 1198,
      "enjoyed": 1199,
      "wrong": 1200,
      "chil": 1201,
      "tri": 1202,
      "dren": 1203,
      "followed": 1204,
      "Finally": 1205,
      "children": 1206,
      "stran": 1207,
      "ross": 1208,
      "bug": 1209,
      "delicious": 1210,
      "hung": 1211,
      "Molly": 1212,
      "please": 1213,
      "finished": 1214,
      "bot": 1215,
      "mar": 1216,
      "friendly": 1217,
      "contin": 1218,
      "dir": 1219,
      "snow": 1220,
      "tall": 1221,
      "cess": 1222,
      "herself": 1223,
      "agreed": 1224,
      "mou": 1225,
      "vis": 1226,
      "spo": 1227,
      "Amy": 1228,
      "hill": 1229,
      "understand": 1230,
      "hot": 1231,
      "oken": 1232,
      "ued": 1233,
      "else": 1234,
      "hid": 1235,
      "oo": 1236,
      "ens": 1237,
      "arrived": 1238,
      "ined": 1239,
      "gent": 1240,
      "wonderful": 1241,
      "broken": 1242,
      "ings": 1243,
      "might": 1244,
      "em": 1245,
      "land": 1246,
      "tight": 1247,
      "forgot": 1248,
      "baby": 1249,
      "ield": 1250,
      "gl": 1251,
      "colors": 1252,
      "Jen": 1253,
      "ient": 1254,
      "most": 1255,
      "sit": 1256,
      "build": 1257,
      "gone": 1258,
      "filled": 1259,
      "erous": 1260,
      "ather": 1261,
      "song": 1262,
      "mat": 1263,
      "Why": 1264,
      "squir": 1265,
      "wards": 1266,
      "books": 1267,
      "fr": 1268,
      "someone": 1269,
      "row": 1270,
      "continued": 1271,
      "creat": 1272,
      "asure": 1273,
      "pat": 1274,
      "castle": 1275,
      "lion": 1276,
      "fight": 1277,
      "wants": 1278,
      "Gr": 1279,
      "mother": 1280,
      "squirrel": 1281,
      "pink": 1282,
      "leaves": 1283,
      "getting": 1284,
      "ves": 1285,
      "enough": 1286,
      "Go": 1287,
      "morning": 1288,
      "OK": 1289,
      "fru": 1290,
      "moment": 1291,
      "av": 1292,
      "finally": 1293,
      "fall": 1294,
      "stayed": 1295,
      "cha": 1296,
      "break": 1297,
      "cookies": 1298,
      "gon": 1299,
      "poin": 1300,
      "beach": 1301,
      "few": 1302,
      "scary": 1303,
      "sometimes": 1304,
      "je": 1305,
      "ju": 1306,
      "fect": 1307,
      "hungry": 1308,
      "dinner": 1309,
      "tast": 1310,
      "ence": 1311,
      "grandma": 1312,
      "Come": 1313,
      "wet": 1314,
      "amazing": 1315,
      "ze": 1316,
      "whe": 1317,
      "plain": 1318,
      "trying": 1319,
      "pack": 1320,
      "daddy": 1321,
      "perfect": 1322,
      "dr": 1323,
      "makes": 1324,
      "others": 1325,
      "asks": 1326,
      "climbed": 1327,
      "pes": 1328,
      "pictures": 1329,
      "talk": 1330,
      "tail": 1331,
      "cover": 1332,
      "listened": 1333,
      "kay": 1334,
      "mus": 1335,
      "tle": 1336,
      "ton": 1337,
      "icy": 1338,
      "white": 1339,
      "fur": 1340,
      "smiles": 1341,
      "Jill": 1342,
      "ballo": 1343,
      "roll": 1344,
      "wall": 1345,
      "alone": 1346,
      "clothe": 1347,
      "appear": 1348,
      "bus": 1349,
      "plan": 1350,
      "clothes": 1351,
      "spl": 1352,
      "oup": 1353,
      "ious": 1354,
      "ot": 1355,
      "Oh": 1356,
      "puppy": 1357,
      "ated": 1358,
      "train": 1359,
      "wasn": 1360,
      "brought": 1361,
      "everything": 1362,
      "strange": 1363,
      "sear": 1364,
      "met": 1365,
      "spark": 1366,
      "dang": 1367,
      "grow": 1368,
      "woods": 1369,
      "deep": 1370,
      "pulled": 1371,
      "bike": 1372,
      "sail": 1373,
      "Be": 1374,
      "ride": 1375,
      "Daddy": 1376,
      "pping": 1377,
      "treat": 1378,
      "fox": 1379,
      "mi": 1380,
      "ose": 1381,
      "af": 1382,
      "Mama": 1383,
      "uffy": 1384,
      "Soon": 1385,
      "hor": 1386,
      "pen": 1387,
      "ucky": 1388,
      "Some": 1389,
      "waited": 1390,
      "music": 1391,
      "gi": 1392,
      "amazed": 1393,
      "danc": 1394,
      "hide": 1395,
      "teddy": 1396,
      "ses": 1397,
      "ps": 1398,
      "bath": 1399,
      "towards": 1400,
      "field": 1401,
      "ange": 1402,
      "pur": 1403,
      "thy": 1404,
      "All": 1405,
      "flying": 1406,
      "sis": 1407,
      "zz": 1408,
      "owner": 1409,
      "whis": 1410,
      "miss": 1411,
      "silly": 1412,
      "shared": 1413,
      "runs": 1414,
      "belie": 1415,
      "cloud": 1416,
      "iss": 1417,
      "visit": 1418,
      "lake": 1419,
      "living": 1420,
      "job": 1421,
      "ames": 1422,
      "promised": 1423,
      "pers": 1424,
      "Okay": 1425,
      "moral": 1426,
      "dance": 1427,
      "thinks": 1428,
      "iet": 1429,
      "Mary": 1430,
      "sister": 1431,
      "ually": 1432,
      "party": 1433,
      "mind": 1434,
      "quiet": 1435,
      "ises": 1436,
      "nap": 1437,
      "money": 1438,
      "Sure": 1439,
      "gs": 1440,
      "board": 1441,
      "must": 1442,
      "Just": 1443,
      "worried": 1444,
      "answ": 1445,
      "chair": 1446,
      "ap": 1447,
      "ateful": 1448,
      "grateful": 1449,
      "slowly": 1450,
      "colorful": 1451,
      "cup": 1452,
      "ment": 1453,
      "faster": 1454,
      "pieces": 1455,
      "bran": 1456,
      "Mr": 1457,
      "lice": 1458,
      "explain": 1459,
      "pass": 1460,
      "hes": 1461,
      "broke": 1462,
      "ctor": 1463,
      "gif": 1464,
      "such": 1465,
      "bigger": 1466,
      "ich": 1467,
      "snack": 1468,
      "reach": 1469,
      "pull": 1470,
      "thre": 1471,
      "dry": 1472,
      "heav": 1473,
      "monster": 1474,
      "plant": 1475,
      "win": 1476,
      "join": 1477,
      "black": 1478,
      "candy": 1479,
      "ele": 1480,
      "words": 1481,
      "blan": 1482,
      "scream": 1483,
      "treasure": 1484,
      "magical": 1485,
      "dangerous": 1486,
      "Mum": 1487,
      "sign": 1488,
      "dragon": 1489,
      "across": 1490,
      "gra": 1491,
      "everywhere": 1492,
      "helping": 1493,
      "Jimmy": 1494,
      "dri": 1495,
      "farmer": 1496,
      "smart": 1497,
      "Grandma": 1498,
      "Hi": 1499,
      "start": 1500,
      "mouth": 1501,
      "smel": 1502,
      "min": 1503,
      "ourse": 1504,
      "bee": 1505,
      "rot": 1506,
      "ng": 1507,
      "igg": 1508,
      "tower": 1509,
      "threw": 1510,
      "stepped": 1511,
      "heavy": 1512,
      "dolls": 1513,
      "bowl": 1514,
      "bite": 1515,
      "appeared": 1516,
      "dirty": 1517,
      "same": 1518,
      "twins": 1519,
      "mix": 1520,
      "swa": 1521,
      "believe": 1522,
      "crying": 1523,
      "Please": 1524,
      "sc": 1525,
      "doctor": 1526,
      "ident": 1527,
      "shar": 1528,
      "princess": 1529,
      "heal": 1530,
      "wouldn": 1531,
      "har": 1532,
      "chool": 1533,
      "hig": 1534,
      "unch": 1535,
      "ub": 1536,
      "closed": 1537,
      "stuck": 1538,
      "school": 1539,
      "press": 1540,
      "bas": 1541,
      "spr": 1542,
      "balloon": 1543,
      "stu": 1544,
      "swam": 1545,
      "teac": 1546,
      "brown": 1547,
      "Emma": 1548,
      "hoped": 1549,
      "sy": 1550,
      "suddenly": 1551,
      "iting": 1552,
      "paint": 1553,
      "feels": 1554,
      "pow": 1555,
      "town": 1556,
      "eating": 1557,
      "course": 1558,
      "cray": 1559,
      "clapped": 1560,
      "plane": 1561,
      "da": 1562,
      "stood": 1563,
      "wr": 1564,
      "ek": 1565,
      "gentle": 1566,
      "fairy": 1567,
      "val": 1568,
      "comfor": 1569,
      "ventually": 1570,
      "button": 1571,
      "takes": 1572,
      "child": 1573,
      "basket": 1574,
      "free": 1575,
      "drove": 1576,
      "welcome": 1577,
      "pushed": 1578,
      "round": 1579,
      "shine": 1580,
      "Inside": 1581,
      "kno": 1582,
      "kiss": 1583,
      "neigh": 1584,
      "without": 1585,
      "higher": 1586,
      "today": 1587,
      "swings": 1588,
      "cident": 1589,
      "blanket": 1590,
      "stead": 1591,
      "str": 1592,
      "teacher": 1593,
      "ire": 1594,
      "ches": 1595,
      "phone": 1596,
      "sea": 1597,
      "games": 1598,
      "cheered": 1599,
      "ben": 1600,
      "moved": 1601,
      "wings": 1602,
      "jour": 1603,
      "explained": 1604,
      "longer": 1605,
      "ible": 1606,
      "accident": 1607,
      "wise": 1608,
      "late": 1609,
      "along": 1610,
      "wish": 1611,
      "well": 1612,
      "Their": 1613,
      "Fl": 1614,
      "noises": 1615,
      "itting": 1616,
      "sang": 1617,
      "ling": 1618,
      "throw": 1619,
      "happen": 1620,
      "pol": 1621,
      "stone": 1622,
      "hugs": 1623,
      "turns": 1624,
      "ney": 1625,
      "stories": 1626,
      "mine": 1627,
      "shoes": 1628,
      "phant": 1629,
      "apple": 1630,
      "though": 1631,
      "forget": 1632,
      "adventures": 1633,
      "singing": 1634,
      "neck": 1635,
      "trou": 1636,
      "lone": 1637,
      "fence": 1638,
      "jar": 1639,
      "lunch": 1640,
      "upset": 1641,
      "lonely": 1642,
      "del": 1643,
      "El": 1644,
      "heart": 1645,
      "belong": 1646,
      "oun": 1647,
      "secre": 1648,
      "elephant": 1649,
      "street": 1650,
      "young": 1651,
      "Pe": 1652,
      "ntain": 1653,
      "dist": 1654,
      "shop": 1655,
      "Fluffy": 1656,
      "itch": 1657,
      "monkey": 1658,
      "shook": 1659,
      "ours": 1660,
      "exploring": 1661,
      "nee": 1662,
      "pocket": 1663,
      "Sammy": 1664,
      "sent": 1665,
      "add": 1666,
      "ughty": 1667,
      "Le": 1668,
      "nearby": 1669,
      "owl": 1670,
      "naughty": 1671,
      "soup": 1672,
      "My": 1673,
      "stars": 1674,
      "bring": 1675,
      "fused": 1676,
      "ship": 1677,
      "caught": 1678,
      "woke": 1679,
      "des": 1680,
      "backyard": 1681,
      "seemed": 1682,
      "cal": 1683,
      "body": 1684,
      "relie": 1685,
      "att": 1686,
      "dropped": 1687,
      "rocks": 1688,
      "ughter": 1689,
      "drink": 1690,
      "coat": 1691,
      "bs": 1692,
      "ming": 1693,
      "taking": 1694,
      "purple": 1695,
      "daughter": 1696,
      "mail": 1697,
      "fit": 1698,
      "ions": 1699,
      "orange": 1700,
      "shapes": 1701,
      "hello": 1702,
      "driver": 1703,
      "cow": 1704,
      "pil": 1705,
      "bench": 1706,
      "hit": 1707,
      "fing": 1708,
      "comes": 1709,
      "sounds": 1710,
      "wondered": 1711,
      "busy": 1712,
      "ier": 1713,
      "hur": 1714,
      "past": 1715,
      "tiny": 1716,
      "mil": 1717,
      "nest": 1718,
      "Later": 1719,
      "erful": 1720,
      "nose": 1721,
      "sitting": 1722,
      "rainbow": 1723,
      "ull": 1724,
      "amp": 1725,
      "ese": 1726,
      "touc": 1727,
      "kite": 1728,
      "mer": 1729,
      "holding": 1730,
      "nothing": 1731,
      "juice": 1732,
      "smell": 1733,
      "sco": 1734,
      "mach": 1735,
      "arms": 1736,
      "brea": 1737,
      "pra": 1738,
      "chas": 1739,
      "thday": 1740,
      "pig": 1741,
      "With": 1742,
      "Good": 1743,
      "sug": 1744,
      "count": 1745,
      "band": 1746,
      "cir": 1747,
      "cute": 1748,
      "loves": 1749,
      "ining": 1750,
      "secret": 1751,
      "branch": 1752,
      "oom": 1753,
      "quest": 1754,
      "pper": 1755,
      "raid": 1756,
      "relieved": 1757,
      "shell": 1758,
      "Of": 1759,
      "afraid": 1760,
      "idge": 1761,
      "ars": 1762,
      "promise": 1763,
      "forever": 1764,
      "How": 1765,
      "carry": 1766,
      "gift": 1767,
      "sick": 1768,
      "Jenny": 1769,
      "days": 1770,
      "boun": 1771,
      "hu": 1772,
      "uni": 1773,
      "peace": 1774,
      "Ted": 1775,
      "Tweet": 1776,
      "touched": 1777,
      "bucket": 1778,
      "huge": 1779,
      "orn": 1780,
      "push": 1781,
      "live": 1782,
      "patient": 1783,
      "covered": 1784,
      "eg": 1785,
      "birthday": 1786,
      "letter": 1787,
      "terest": 1788,
      "interest": 1789,
      "cheese": 1790,
      "exciting": 1791,
      "sunny": 1792,
      "life": 1793,
      "onto": 1794,
      "bush": 1795,
      "wra": 1796,
      "laughing": 1797,
      "act": 1798,
      "wand": 1799,
      "su": 1800,
      "gest": 1801,
      "creature": 1802,
      "bread": 1803,
      "Hey": 1804,
      "ittens": 1805,
      "imag": 1806,
      "kick": 1807,
      "gged": 1808,
      "hope": 1809,
      "vel": 1810,
      "craw": 1811,
      "Emily": 1812,
      "cozy": 1813,
      "ness": 1814,
      "journey": 1815,
      "swimming": 1816,
      "coun": 1817,
      "suc": 1818,
      "bottle": 1819,
      "gives": 1820,
      "instead": 1821,
      "net": 1822,
      "milk": 1823,
      "watching": 1824,
      "eas": 1825,
      "spin": 1826,
      "lucky": 1827,
      "ced": 1828,
      "ian": 1829,
      "accidentally": 1830,
      "sunshine": 1831,
      "cave": 1832,
      "va": 1833,
      "puts": 1834,
      "ade": 1835,
      "sharp": 1836,
      "talked": 1837,
      "gen": 1838,
      "honey": 1839,
      "colle": 1840,
      "pointed": 1841,
      "pudd": 1842,
      "road": 1843,
      "gather": 1844,
      "di": 1845,
      "bru": 1846,
      "ye": 1847,
      "neighbor": 1848,
      "smiling": 1849,
      "bought": 1850,
      "anyone": 1851,
      "searched": 1852,
      "later": 1853,
      "sandw": 1854,
      "sli": 1855,
      "itten": 1856,
      "nic": 1857,
      "Where": 1858,
      "apples": 1859,
      "shelf": 1860,
      "storm": 1861,
      "part": 1862,
      "snake": 1863,
      "shes": 1864,
      "blem": 1865,
      "problem": 1866,
      "meet": 1867,
      "ize": 1868,
      "word": 1869,
      "wide": 1870,
      "irt": 1871,
      "inv": 1872,
      "wom": 1873,
      "ugg": 1874,
      "interesting": 1875,
      "healthy": 1876,
      "woman": 1877,
      "œI": 1878,
      "spoon": 1879,
      "circle": 1880,
      "pile": 1881,
      "tasty": 1882,
      "ducks": 1883,
      "vill": 1884,
      "zoom": 1885,
      "eag": 1886,
      "rope": 1887,
      "num": 1888,
      "spid": 1889,
      "clever": 1890,
      "andpa": 1891,
      "prote": 1892,
      "bled": 1893,
      "crayons": 1894,
      "trouble": 1895,
      "matter": 1896,
      "clouds": 1897,
      "ast": 1898,
      "log": 1899,
      "roar": 1900,
      "person": 1901,
      "path": 1902,
      "gigg": 1903,
      "fron": 1904,
      "Are": 1905,
      "feather": 1906,
      "front": 1907,
      "comfortable": 1908,
      "ert": 1909,
      "shining": 1910,
      "smelled": 1911,
      "dest": 1912,
      "wash": 1913,
      "Jake": 1914,
      "present": 1915,
      "tea": 1916,
      "pract": 1917,
      "splash": 1918,
      "spotted": 1919,
      "zoo": 1920,
      "screamed": 1921,
      "minut": 1922,
      "respe": 1923,
      "mud": 1924,
      "organ": 1925,
      "war": 1926,
      "orm": 1927,
      "lock": 1928,
      "danced": 1929,
      "hop": 1930,
      "seat": 1931,
      "wheel": 1932,
      "which": 1933,
      "berries": 1934,
      "puzz": 1935,
      "myster": 1936,
      "teach": 1937,
      "snowman": 1938,
      "Ro": 1939,
      "Mittens": 1940,
      "isa": 1941,
      "thin": 1942,
      "last": 1943,
      "lay": 1944,
      "pan": 1945,
      "horse": 1946,
      "asleep": 1947,
      "lovely": 1948,
      "ned": 1949,
      "rolled": 1950,
      "answer": 1951,
      "Together": 1952,
      "bark": 1953,
      "gently": 1954,
      "wearing": 1955,
      "places": 1956,
      "goes": 1957,
      "giant": 1958,
      "search": 1959,
      "fli": 1960,
      "wild": 1961,
      "whole": 1962,
      "Lisa": 1963,
      "ser": 1964,
      "string": 1965,
      "pill": 1966,
      "gy": 1967,
      "Sometimes": 1968,
      "If": 1969,
      "fruit": 1970,
      "corner": 1971,
      "impress": 1972,
      "dirt": 1973,
      "respect": 1974,
      "tun": 1975,
      "tries": 1976,
      "worm": 1977,
      "card": 1978,
      "ones": 1979,
      "corn": 1980,
      "confused": 1981,
      "Mummy": 1982,
      "vie": 1983,
      "slid": 1984,
      "tasted": 1985,
      "bubb": 1986,
      "rubb": 1987,
      "eth": 1988,
      "cean": 1989,
      "ocean": 1990,
      "forgive": 1991,
      "rude": 1992,
      "picnic": 1993,
      "ased": 1994,
      "tool": 1995,
      "machine": 1996,
      "rich": 1997,
      "spent": 1998,
      "drive": 1999,
      "teeth": 2000,
      "bel": 2001,
      "step": 2002,
      "itty": 2003,
      "uce": 2004,
      "wave": 2005,
      "oven": 2006,
      "pour": 2007,
      "calm": 2008,
      "pretended": 2009,
      "delight": 2010,
      "cookie": 2011,
      "pop": 2012,
      "furry": 2013,
      "spider": 2014,
      "feet": 2015,
      "izz": 2016,
      "faces": 2017,
      "Peter": 2018,
      "lar": 2019,
      "fold": 2020,
      "Little": 2021,
      "erly": 2022,
      "shy": 2023,
      "swe": 2024,
      "helpful": 2025,
      "test": 2026,
      "finish": 2027,
      "eventually": 2028,
      "chick": 2029,
      "Here": 2030,
      "ity": 2031,
      "hang": 2032,
      "mountain": 2033,
      "shr": 2034,
      "peaceful": 2035,
      "talking": 2036,
      "stair": 2037,
      "pread": 2038,
      "res": 2039,
      "mel": 2040,
      "lace": 2041,
      "morrow": 2042,
      "tomorrow": 2043,
      "chocol": 2044,
      "ladder": 2045,
      "spread": 2046,
      "tid": 2047,
      "ipped": 2048,
      "protect": 2049,
      "shad": 2050,
      "village": 2051,
      "smoo": 2052,
      "sol": 2053,
      "remind": 2054,
      "coin": 2055,
      "Teddy": 2056,
      "couch": 2057,
      "joke": 2058,
      "foot": 2059,
      "cele": 2060,
      "write": 2061,
      "bell": 2062,
      "building": 2063,
      "stret": 2064,
      "seek": 2065,
      "cer": 2066,
      "bugs": 2067,
      "wore": 2068,
      "fighting": 2069,
      "chased": 2070,
      "smooth": 2071,
      "ife": 2072,
      "treats": 2073,
      "trip": 2074,
      "ighed": 2075,
      "Sus": 2076,
      "blew": 2077,
      "cage": 2078,
      "Who": 2079,
      "spit": 2080,
      "barr": 2081,
      "pool": 2082,
      "kets": 2083,
      "embarr": 2084,
      "waiting": 2085,
      "hiding": 2086,
      "mir": 2087,
      "Fred": 2088,
      "knee": 2089,
      "necklace": 2090,
      "den": 2091,
      "puddle": 2092,
      "shake": 2093,
      "Re": 2094,
      "rank": 2095,
      "maybe": 2096,
      "stir": 2097,
      "grab": 2098,
      "songs": 2099,
      "whenever": 2100,
      "selfish": 2101,
      "cross": 2102,
      "ban": 2103,
      "embarrass": 2104,
      "ult": 2105,
      "ten": 2106,
      "collect": 2107,
      "cannot": 2108,
      "hum": 2109,
      "cloth": 2110,
      "chocolate": 2111,
      "Everywhere": 2112,
      "taste": 2113,
      "Stop": 2114,
      "lves": 2115,
      "paw": 2116,
      "leaf": 2117,
      "sack": 2118,
      "large": 2119,
      "Ann": 2120,
      "fixed": 2121,
      "barked": 2122,
      "banan": 2123,
      "tidy": 2124,
      "spray": 2125,
      "umpy": 2126,
      "Pa": 2127,
      "colour": 2128,
      "rag": 2129,
      "stra": 2130,
      "celebr": 2131,
      "cord": 2132,
      "carrot": 2133,
      "prince": 2134,
      "asha": 2135,
      "onest": 2136,
      "oin": 2137,
      "tu": 2138,
      "tie": 2139,
      "ungle": 2140,
      "Johnny": 2141,
      "rots": 2142,
      "deter": 2143,
      "missed": 2144,
      "shirt": 2145,
      "Alice": 2146,
      "jungle": 2147,
      "cape": 2148,
      "robot": 2149,
      "landed": 2150,
      "forward": 2151,
      "appoin": 2152,
      "embarrassed": 2153,
      "honest": 2154,
      "jumping": 2155,
      "decor": 2156,
      "ee": 2157,
      "sque": 2158,
      "sticks": 2159,
      "Help": 2160,
      "elly": 2161,
      "trust": 2162,
      "moon": 2163,
      "hears": 2164,
      "Even": 2165,
      "TV": 2166,
      "scre": 2167,
      "clear": 2168,
      "creative": 2169,
      "sharing": 2170,
      "Rex": 2171,
      "ending": 2172,
      "polite": 2173,
      "adow": 2174,
      "carrots": 2175,
      "knocked": 2176,
      "disappoin": 2177,
      "success": 2178,
      "meadow": 2179,
      "getable": 2180,
      "breath": 2181,
      "cted": 2182,
      "hero": 2183,
      "cop": 2184,
      "vegetable": 2185,
      "While": 2186,
      "meant": 2187,
      "sour": 2188,
      "legs": 2189,
      "tightly": 2190,
      "brush": 2191,
      "ashamed": 2192,
      "almost": 2193,
      "plate": 2194,
      "emp": 2195,
      "glow": 2196,
      "gray": 2197,
      "orry": 2198,
      "sup": 2199,
      "grew": 2200,
      "tells": 2201,
      "empty": 2202,
      "pillow": 2203,
      "Sorry": 2204,
      "stairs": 2205,
      "whistle": 2206,
      "gas": 2207,
      "rad": 2208,
      "understood": 2209,
      "coura": 2210,
      "ail": 2211,
      "sheep": 2212,
      "carried": 2213,
      "nut": 2214,
      "yelled": 2215,
      "blow": 2216,
      "line": 2217,
      "mark": 2218,
      "lemon": 2219,
      "ancy": 2220,
      "nods": 2221,
      "save": 2222,
      "police": 2223,
      "vous": 2224,
      "these": 2225,
      "disappointed": 2226,
      "pay": 2227,
      "snacks": 2228,
      "hours": 2229,
      "Leo": 2230,
      "fla": 2231,
      "block": 2232,
      "spital": 2233,
      "hospital": 2234,
      "sparkly": 2235,
      "gold": 2236,
      "Today": 2237,
      "kitten": 2238,
      "jewel": 2239,
      "Give": 2240,
      "Me": 2241,
      "ony": 2242,
      "bored": 2243,
      "flies": 2244,
      "ina": 2245,
      "seed": 2246,
      "generous": 2247,
      "frustr": 2248,
      "hidden": 2249,
      "ird": 2250,
      "taught": 2251,
      "Your": 2252,
      "standing": 2253,
      "knowing": 2254,
      "Mark": 2255,
      "crab": 2256,
      "scarf": 2257,
      "bat": 2258,
      "chew": 2259,
      "group": 2260,
      "returned": 2261,
      "minutes": 2262,
      "pizz": 2263,
      "plants": 2264,
      "pir": 2265,
      "easy": 2266,
      "pri": 2267,
      "bedroom": 2268,
      "mysterious": 2269,
      "waves": 2270,
      "sage": 2271,
      "sighed": 2272,
      "ants": 2273,
      "thankful": 2274,
      "gun": 2275,
      "wolf": 2276,
      "burn": 2277,
      "mined": 2278,
      "Susie": 2279,
      "powerful": 2280,
      "determined": 2281,
      "kin": 2282,
      "puzzle": 2283,
      "balls": 2284,
      "dle": 2285,
      "fear": 2286,
      "spla": 2287,
      "van": 2288,
      "sandwich": 2289,
      "match": 2290,
      "fig": 2291,
      "note": 2292,
      "sleepy": 2293,
      "shore": 2294,
      "passed": 2295,
      "drew": 2296,
      "spicy": 2297,
      "packed": 2298,
      "finger": 2299,
      "law": 2300,
      "os": 2301,
      "spoil": 2302,
      "pizza": 2303,
      "jelly": 2304,
      "frustrated": 2305,
      "nervous": 2306,
      "keeper": 2307,
      "bridge": 2308,
      "fancy": 2309,
      "messy": 2310,
      "cy": 2311,
      "saur": 2312,
      "gate": 2313,
      "kissed": 2314,
      "closet": 2315,
      "era": 2316,
      "spa": 2317,
      "feed": 2318,
      "sold": 2319,
      "osaur": 2320,
      "gathered": 2321,
      "excite": 2322,
      "pin": 2323,
      "poor": 2324,
      "hose": 2325,
      "cater": 2326,
      "caterpill": 2327,
      "flag": 2328,
      "issor": 2329,
      "berry": 2330,
      "grumpy": 2331,
      "form": 2332,
      "bul": 2333,
      "dinosaur": 2334,
      "iddle": 2335,
      "yourself": 2336,
      "whisper": 2337,
      "issors": 2338,
      "chest": 2339,
      "tent": 2340,
      "answered": 2341,
      "ken": 2342,
      "cries": 2343,
      "working": 2344,
      "week": 2345,
      "case": 2346,
      "often": 2347,
      "itter": 2348,
      "twirl": 2349,
      "scissors": 2350,
      "hopping": 2351,
      "Bl": 2352,
      "tears": 2353,
      "ugly": 2354,
      "gets": 2355,
      "lif": 2356,
      "mummy": 2357,
      "towel": 2358,
      "ella": 2359,
      "stum": 2360,
      "cand": 2361,
      "fil": 2362,
      "deer": 2363,
      "ensive": 2364,
      "lit": 2365,
      "See": 2366,
      "expensive": 2367,
      "excitement": 2368,
      "izzy": 2369,
      "caterpillar": 2370,
      "middle": 2371,
      "saved": 2372,
      "taken": 2373,
      "Ch": 2374,
      "Dan": 2375,
      "space": 2376,
      "true": 2377,
      "allow": 2378,
      "leg": 2379,
      "wagged": 2380,
      "pleased": 2381,
      "crown": 2382,
      "known": 2383,
      "class": 2384,
      "ignor": 2385,
      "picks": 2386,
      "fre": 2387,
      "boring": 2388,
      "Bobby": 2389,
      "vase": 2390,
      "asking": 2391,
      "pair": 2392,
      "espe": 2393,
      "boss": 2394,
      "au": 2395,
      "licked": 2396,
      "ual": 2397,
      "son": 2398,
      "vegetables": 2399,
      "Lo": 2400,
      "giggled": 2401,
      "eld": 2402,
      "Pet": 2403,
      "jog": 2404,
      "wake": 2405,
      "mistake": 2406,
      "illed": 2407,
      "lown": 2408,
      "father": 2409,
      "change": 2410,
      "glass": 2411,
      "rocket": 2412,
      "lying": 2413,
      "tig": 2414,
      "usual": 2415,
      "sugar": 2416,
      "og": 2417,
      "stuff": 2418,
      "dancing": 2419,
      "lose": 2420,
      "cially": 2421,
      "especially": 2422,
      "number": 2423,
      "medic": 2424,
      "ates": 2425,
      "clown": 2426,
      "exam": 2427,
      "sight": 2428,
      "inc": 2429,
      "Blue": 2430,
      "kn": 2431,
      "knight": 2432,
      "ror": 2433,
      "Kitty": 2434,
      "moving": 2435,
      "wip": 2436,
      "fruits": 2437,
      "Mandy": 2438,
      "Eventually": 2439,
      "Pete": 2440,
      "fake": 2441,
      "drum": 2442,
      "bers": 2443,
      "soar": 2444,
      "nel": 2445,
      "eggs": 2446,
      "cri": 2447,
      "walks": 2448,
      "distance": 2449,
      "locked": 2450,
      "iness": 2451,
      "pray": 2452,
      "medicine": 2453,
      "bake": 2454,
      "glue": 2455,
      "bone": 2456,
      "splashed": 2457,
      "sweetie": 2458,
      "lly": 2459,
      "flut": 2460,
      "ipe": 2461,
      "drawing": 2462,
      "yal": 2463,
      "disappeared": 2464,
      "lead": 2465,
      "smelly": 2466,
      "Well": 2467,
      "become": 2468,
      "painting": 2469,
      "feathers": 2470,
      "moms": 2471,
      "dogs": 2472,
      "tory": 2473,
      "calling": 2474,
      "aged": 2475,
      "Mar": 2476,
      "elderly": 2477,
      "order": 2478,
      "toes": 2479,
      "bathroom": 2480,
      "playground": 2481,
      "lazy": 2482,
      "incred": 2483,
      "rid": 2484,
      "Letâ": 2485,
      "weak": 2486,
      "mic": 2487,
      "mirror": 2488,
      "?\".": 2489,
      "rote": 2490,
      "horn": 2491,
      "questions": 2492,
      "wrote": 2493,
      "yours": 2494,
      "yog": 2495,
      "Br": 2496,
      "noisy": 2497,
      "boys": 2498,
      "nod": 2499,
      "suggest": 2500,
      "ham": 2501,
      "micro": 2502,
      "Ellie": 2503,
      "fluffy": 2504,
      "skipped": 2505,
      "wis": 2506,
      "dol": 2507,
      "eager": 2508,
      "dish": 2509,
      "loyal": 2510,
      "stones": 2511,
      "famous": 2512,
      "check": 2513,
      "fu": 2514,
      "End": 2515,
      "giving": 2516,
      "rare": 2517,
      "sell": 2518,
      "tape": 2519,
      "dig": 2520,
      "ruined": 2521,
      "illi": 2522,
      "dolph": 2523,
      "drank": 2524,
      "content": 2525,
      "figure": 2526,
      "queen": 2527,
      "incredible": 2528,
      "march": 2529,
      "team": 2530,
      "ating": 2531,
      "shows": 2532,
      "tro": 2533,
      "juicy": 2534,
      "chang": 2535,
      "zed": 2536,
      "jam": 2537,
      "tub": 2538,
      "Whe": 2539,
      "rela": 2540,
      "relax": 2541,
      "sailed": 2542,
      "measure": 2543,
      "ator": 2544,
      "soap": 2545,
      "Ella": 2546,
      "decide": 2547,
      "lamp": 2548,
      "realised": 2549,
      "discovered": 2550,
      "motor": 2551,
      "coins": 2552,
      "borrow": 2553,
      "needs": 2554,
      "Bella": 2555,
      "swan": 2556,
      "ears": 2557,
      "straw": 2558,
      "fine": 2559,
      "adventur": 2560,
      "aser": 2561,
      "fic": 2562,
      "supp": 2563,
      "extra": 2564,
      "cleaned": 2565,
      "branches": 2566,
      "runk": 2567,
      "als": 2568,
      "Rose": 2569,
      "ately": 2570,
      "cher": 2571,
      "Brown": 2572,
      "balance": 2573,
      "eng": 2574,
      "lid": 2575,
      "tag": 2576,
      "chicken": 2577,
      "cient": 2578,
      "tiger": 2579,
      "adventurous": 2580,
      "barn": 2581,
      "eye": 2582,
      "diffic": 2583,
      "offered": 2584,
      "wha": 2585,
      "lifted": 2586,
      "tom": 2587,
      "colourful": 2588,
      "bubbles": 2589,
      "map": 2590,
      "organized": 2591,
      "frown": 2592,
      "turt": 2593,
      "St": 2594,
      "Bobo": 2595,
      "vide": 2596,
      "difficult": 2597,
      "bottom": 2598,
      "selves": 2599,
      "toug": 2600,
      "cheerful": 2601,
      "alous": 2602,
      "thick": 2603,
      "unique": 2604,
      "gue": 2605,
      "smo": 2606,
      "happening": 2607,
      "chase": 2608,
      "jealous": 2609,
      "Mrs": 2610,
      "knife": 2611,
      "wrapped": 2612,
      "island": 2613,
      "cil": 2614,
      "Grandpa": 2615,
      "men": 2616,
      "arage": 2617,
      "weird": 2618,
      "garage": 2619,
      "ero": 2620,
      "fright": 2621,
      "managed": 2622,
      "hurts": 2623,
      "pencil": 2624,
      "imed": 2625,
      "once": 2626,
      "Ne": 2627,
      "Dave": 2628,
      "gust": 2629,
      "using": 2630,
      "crawled": 2631,
      "learning": 2632,
      "cro": 2633,
      "vest": 2634,
      "boo": 2635,
      "flash": 2636,
      "saying": 2637,
      "sil": 2638,
      "kindness": 2639,
      "ular": 2640,
      "tough": 2641,
      "ured": 2642,
      "mighty": 2643,
      "balloons": 2644,
      "market": 2645,
      "pointing": 2646,
      "favour": 2647,
      "bald": 2648,
      "squee": 2649,
      "added": 2650,
      "four": 2651,
      "apo": 2652,
      "aw": 2653,
      "harm": 2654,
      "oph": 2655,
      "louder": 2656,
      "edge": 2657,
      "Tweety": 2658,
      "batter": 2659,
      "guit": 2660,
      "spun": 2661,
      "harder": 2662,
      "apolog": 2663,
      "successful": 2664,
      "norm": 2665,
      "already": 2666,
      "Ow": 2667,
      "choose": 2668,
      "valu": 2669,
      "pal": 2670,
      "smoke": 2671,
      "ging": 2672,
      "fool": 2673,
      "agree": 2674,
      "favourite": 2675,
      "whale": 2676,
      "unusual": 2677,
      "lift": 2678,
      "libr": 2679,
      "enjoying": 2680,
      "dizzy": 2681,
      "hats": 2682,
      "pump": 2683,
      "shells": 2684,
      "belonged": 2685,
      "grace": 2686,
      "boxes": 2687,
      "dep": 2688,
      "courage": 2689,
      "record": 2690,
      "impressed": 2691,
      "lean": 2692,
      "grown": 2693,
      "uggled": 2694,
      "trucks": 2695,
      "yell": 2696,
      "city": 2697,
      "grand": 2698,
      "sword": 2699,
      "rough": 2700,
      "terri": 2701,
      "Soph": 2702,
      "laughs": 2703,
      "normal": 2704,
      "trunk": 2705,
      "ery": 2706,
      "Would": 2707,
      "guitar": 2708,
      "loudly": 2709,
      "banana": 2710,
      "illiant": 2711,
      "turtle": 2712,
      "Bu": 2713,
      "rat": 2714,
      "proudly": 2715,
      "guess": 2716,
      "scare": 2717,
      "dreamed": 2718,
      "brilliant": 2719,
      "ature": 2720,
      "cab": 2721,
      "ilt": 2722,
      "brothers": 2723,
      "circles": 2724,
      "bossy": 2725,
      "stubb": 2726,
      "escape": 2727,
      "against": 2728,
      "goat": 2729,
      "invited": 2730,
      "suit": 2731,
      "Ju": 2732,
      "skin": 2733,
      "helps": 2734,
      "stream": 2735,
      "port": 2736,
      "obed": 2737,
      "pee": 2738,
      "comple": 2739,
      "scr": 2740,
      "acce": 2741,
      "means": 2742,
      "stri": 2743,
      "frightened": 2744,
      "Lola": 2745,
      "safely": 2746,
      "valuable": 2747,
      "buttons": 2748,
      "slipped": 2749,
      "birdie": 2750,
      "stru": 2751,
      "stubborn": 2752,
      "cabin": 2753,
      "happiness": 2754,
      "ancient": 2755,
      "snee": 2756,
      "crayon": 2757,
      "study": 2758,
      "walls": 2759,
      "nail": 2760,
      "breakfast": 2761,
      "depend": 2762,
      "Ge": 2763,
      "aced": 2764,
      "obedient": 2765,
      "lights": 2766,
      "ination": 2767,
      "clay": 2768,
      "falls": 2769,
      "shadow": 2770,
      "orge": 2771,
      "knows": 2772,
      "foolish": 2773,
      "graceful": 2774,
      "notice": 2775,
      "Nemo": 2776,
      "cate": 2777,
      "fier": 2778,
      "adm": 2779,
      "sca": 2780,
      "fridge": 2781,
      "shape": 2782,
      "nicely": 2783,
      "houses": 2784,
      "clap": 2785,
      "dreams": 2786,
      "fat": 2787,
      "cudd": 2788,
      "grandpa": 2789,
      "movie": 2790,
      "egg": 2791,
      "fierce": 2792,
      "nosy": 2793,
      "guard": 2794,
      "Will": 2795,
      "bloom": 2796,
      "rh": 2797,
      "delicate": 2798,
      "office": 2799,
      "toma": 2800,
      "ext": 2801,
      "jac": 2802,
      "design": 2803,
      "keys": 2804,
      "ado": 2805,
      "excla": 2806,
      "compet": 2807,
      "dead": 2808,
      "suggested": 2809,
      "shark": 2810,
      "wagon": 2811,
      "rubbed": 2812,
      "exclaimed": 2813,
      "kinds": 2814,
      "mixed": 2815,
      "vi": 2816,
      "useful": 2817,
      "wiped": 2818,
      "competit": 2819,
      "poured": 2820,
      "thoughtful": 2821,
      "tools": 2822,
      "Next": 2823,
      "sounded": 2824,
      "atch": 2825,
      "news": 2826,
      "stove": 2827,
      "cam": 2828,
      "excitedly": 2829,
      "clock": 2830,
      "explored": 2831,
      "wing": 2832,
      "ti": 2833,
      "aunt": 2834,
      "ountain": 2835,
      "rose": 2836,
      "George": 2837,
      "!\".": 2838,
      "Whenever": 2839,
      "crack": 2840,
      "playful": 2841,
      "bags": 2842,
      "frag": 2843,
      "dough": 2844,
      "vice": 2845,
      "meal": 2846,
      "bove": 2847,
      "fresh": 2848,
      "weal": 2849,
      "cart": 2850,
      "epend": 2851,
      "fountain": 2852,
      "Ducky": 2853,
      "dom": 2854,
      "spoiled": 2855,
      "themselves": 2856,
      "mes": 2857,
      "stumbled": 2858,
      "changed": 2859,
      "angel": 2860,
      "bushes": 2861,
      "Ho": 2862,
      "bounce": 2863,
      "print": 2864,
      "showing": 2865,
      "robe": 2866,
      "fingers": 2867,
      "witch": 2868,
      "zip": 2869,
      "above": 2870,
      "independ": 2871,
      "ipp": 2872,
      "fragile": 2873,
      "ray": 2874,
      "hun": 2875,
      "smaller": 2876,
      "reg": 2877,
      "dependable": 2878,
      "raced": 2879,
      "ines": 2880,
      "roof": 2881,
      "built": 2882,
      "arrow": 2883,
      "seem": 2884,
      "sof": 2885,
      "dge": 2886,
      "spinning": 2887,
      "rode": 2888,
      "tele": 2889,
      "stretch": 2890,
      "arry": 2891,
      "brightly": 2892,
      "practice": 2893,
      "handed": 2894,
      "cur": 2895,
      "delighted": 2896,
      "orig": 2897,
      "inal": 2898,
      "enorm": 2899,
      "admired": 2900,
      "cone": 2901,
      "enormous": 2902,
      "counted": 2903,
      "kicked": 2904,
      "Toby": 2905,
      "Mike": 2906,
      "cing": 2907,
      "shone": 2908,
      "oc": 2909,
      "reminded": 2910,
      "twig": 2911,
      "cube": 2912,
      "acorn": 2913,
      "lli": 2914,
      "independent": 2915,
      "snif": 2916,
      "solve": 2917,
      "sauce": 2918,
      "hammer": 2919,
      "bees": 2920,
      "bitter": 2921,
      "chir": 2922,
      "memor": 2923,
      "iver": 2924,
      "hoop": 2925,
      "whispered": 2926,
      "original": 2927,
      "chose": 2928,
      "anut": 2929,
      "jolly": 2930,
      "lolli": 2931,
      "sal": 2932,
      "umbre": 2933,
      "wrap": 2934,
      "serious": 2935,
      "stronger": 2936,
      "tunnel": 2937,
      "steal": 2938,
      "tummy": 2939,
      "beak": 2940,
      "boats": 2941,
      "terrible": 2942,
      "post": 2943,
      "parrot": 2944,
      "spend": 2945,
      "painted": 2946,
      "popcorn": 2947,
      "gum": 2948,
      "œYes": 2949,
      "hairy": 2950,
      "moder": 2951,
      "allowed": 2952,
      "rushed": 2953,
      "bean": 2954,
      "reli": 2955,
      "cleaning": 2956,
      "dust": 2957,
      "unknown": 2958,
      "Joey": 2959,
      "Mil": 2960,
      "joined": 2961,
      "leaving": 2962,
      "ended": 2963,
      "finding": 2964,
      "tti": 2965,
      "gasped": 2966,
      "erry": 2967,
      "pota": 2968,
      "salad": 2969,
      "tem": 2970,
      "picking": 2971,
      "pumpkin": 2972,
      "load": 2973,
      "half": 2974,
      "Bear": 2975,
      "power": 2976,
      "upid": 2977,
      "clum": 2978,
      "metal": 2979,
      "bump": 2980,
      "cheer": 2981,
      "dove": 2982,
      "view": 2983,
      "vet": 2984,
      "reliable": 2985,
      "sink": 2986,
      "toast": 2987,
      "amond": 2988,
      "barber": 2989,
      "yet": 2990,
      "fort": 2991,
      "tank": 2992,
      "Kim": 2993,
      "doesn": 2994,
      "those": 2995,
      "nur": 2996,
      "liz": 2997,
      "uring": 2998,
      "forth": 2999,
      "Bill": 3000,
      "hay": 3001,
      "hetti": 3002,
      "stat": 3003,
      "aghetti": 3004,
      "diamond": 3005,
      "dolphin": 3006,
      "advice": 3007,
      "ob": 3008,
      "modern": 3009,
      "thinking": 3010,
      "fed": 3011,
      "gem": 3012,
      "holds": 3013,
      "regular": 3014,
      "pirate": 3015,
      "Paul": 3016,
      "create": 3017,
      "wealthy": 3018,
      "stupid": 3019,
      "Polly": 3020,
      "marble": 3021,
      "ugged": 3022,
      "ingred": 3023,
      "sleeping": 3024,
      "clumsy": 3025,
      "ingredient": 3026,
      "telling": 3027,
      "searching": 3028,
      "yarn": 3029,
      "ject": 3030,
      "ilty": 3031,
      "lex": 3032,
      "spaghetti": 3033,
      "guilty": 3034,
      "Andy": 3035,
      "Char": 3036,
      "peanut": 3037,
      "flex": 3038,
      "goose": 3039,
      "glo": 3040,
      "œWhat": 3041,
      "Sophie": 3042,
      "bble": 3043,
      "compass": 3044,
      "ges": 3045,
      "cane": 3046,
      "noon": 3047,
      "opens": 3048,
      "patch": 3049,
      "engine": 3050,
      "stage": 3051,
      "thunder": 3052,
      "square": 3053,
      "cco": 3054,
      "lla": 3055,
      "Alex": 3056,
      "lope": 3057,
      "crazy": 3058,
      "camera": 3059,
      "umbrella": 3060,
      "cod": 3061,
      "driving": 3062,
      "roy": 3063,
      "washed": 3064,
      "popul": 3065,
      "popular": 3066,
      "beet": 3067,
      "shiver": 3068,
      "thirst": 3069,
      "carrying": 3070,
      "Bye": 3071,
      "lives": 3072,
      "dreaming": 3073,
      "tern": 3074,
      "dull": 3075,
      "œIt": 3076,
      "missing": 3077,
      "illa": 3078,
      "sparkled": 3079,
      "brace": 3080,
      "flexible": 3081,
      "isted": 3082,
      "friendship": 3083,
      "truth": 3084,
      "rise": 3085,
      "seeds": 3086,
      "impressive": 3087,
      "tied": 3088,
      "Ru": 3089,
      "sne": 3090,
      "wander": 3091,
      "careless": 3092,
      "library": 3093,
      "stal": 3094,
      "imagined": 3095,
      "deliver": 3096,
      "jacket": 3097,
      "ations": 3098,
      "nature": 3099,
      "reward": 3100,
      "tered": 3101,
      "handle": 3102,
      "destroy": 3103,
      "ley": 3104,
      "sty": 3105,
      "ingredients": 3106,
      "verse": 3107,
      "shocked": 3108,
      "prize": 3109,
      "ordin": 3110,
      "sudden": 3111,
      "crocod": 3112,
      "charm": 3113,
      "cupboard": 3114,
      "ordinary": 3115,
      "compassion": 3116,
      "coo": 3117,
      "pige": 3118,
      "pattern": 3119,
      "enve": 3120,
      "thus": 3121,
      "ither": 3122,
      "ince": 3123,
      "thirsty": 3124,
      "sadly": 3125,
      "host": 3126,
      "stranger": 3127,
      "fork": 3128,
      "doors": 3129,
      "persist": 3130,
      "reading": 3131,
      "wheels": 3132,
      "enthus": 3133,
      "desk": 3134,
      "œLetâ": 3135,
      "rece": 3136,
      "Or": 3137,
      "stack": 3138,
      "wire": 3139,
      "early": 3140,
      "planet": 3141,
      "hunter": 3142,
      "discover": 3143,
      "numbers": 3144,
      "peeked": 3145,
      "ages": 3146,
      "penny": 3147,
      "butterflies": 3148,
      "io": 3149,
      "screen": 3150,
      "ience": 3151,
      "ief": 3152,
      "spilled": 3153,
      "bracelet": 3154,
      "return": 3155,
      "rug": 3156,
      "torn": 3157,
      "main": 3158,
      "stops": 3159,
      "cran": 3160,
      "spring": 3161,
      "given": 3162,
      "comput": 3163,
      "ahead": 3164,
      "env": 3165,
      "towers": 3166,
      "sorts": 3167,
      "spoke": 3168,
      "steps": 3169,
      "anx": 3170,
      "bent": 3171,
      "flashlight": 3172,
      "intell": 3173,
      "intellig": 3174,
      "Al": 3175,
      "warned": 3176,
      "earth": 3177,
      "pengu": 3178,
      "humble": 3179,
      "placed": 3180,
      "windows": 3181,
      "polish": 3182,
      "reci": 3183,
      "mailbox": 3184,
      "pup": 3185,
      "avo": 3186,
      "cheap": 3187,
      "asses": 3188,
      "uncomfortable": 3189,
      "aid": 3190,
      "Yay": 3191,
      "sunflower": 3192,
      "super": 3193,
      "Pat": 3194,
      "pale": 3195,
      "anda": 3196,
      "travel": 3197,
      "gling": 3198,
      "badly": 3199,
      "older": 3200,
      "inde": 3201,
      "sses": 3202,
      "anxious": 3203,
      "slides": 3204,
      "Un": 3205,
      "biggest": 3206,
      "scale": 3207,
      "couldnâ": 3208,
      "flute": 3209,
      "growing": 3210,
      "statue": 3211,
      "remain": 3212,
      "counting": 3213,
      "ribb": 3214,
      "cooking": 3215,
      "complete": 3216,
      "celebrate": 3217,
      "lizard": 3218,
      "beetle": 3219,
      "scat": 3220,
      "scoo": 3221,
      "value": 3222,
      "coco": 3223,
      "harmless": 3224,
      "beep": 3225,
      "bull": 3226,
      "sofa": 3227,
      "beauty": 3228,
      "deaf": 3229,
      "tic": 3230,
      "gloom": 3231,
      "mole": 3232,
      "sity": 3233,
      "pear": 3234,
      "shoot": 3235,
      "shut": 3236,
      "nurse": 3237,
      "may": 3238,
      "ctive": 3239,
      "comb": 3240,
      "lim": 3241,
      "cakes": 3242,
      "Hen": 3243,
      "persistent": 3244,
      "crocodile": 3245,
      "ghost": 3246,
      "gifted": 3247,
      "jumps": 3248,
      "trick": 3249,
      "track": 3250,
      "charming": 3251,
      "refused": 3252,
      "est": 3253,
      "cereal": 3254,
      "names": 3255,
      "flour": 3256,
      "yaw": 3257,
      "iches": 3258,
      "neat": 3259,
      "crane": 3260,
      "jet": 3261,
      "pretending": 3262,
      "coll": 3263,
      "base": 3264,
      "pony": 3265,
      "sandwiches": 3266,
      "drop": 3267,
      "raven": 3268,
      "curt": 3269,
      "snuggled": 3270,
      "curtain": 3271,
      "tur": 3272,
      "fan": 3273,
      "aches": 3274,
      "chasing": 3275,
      "tled": 3276,
      "question": 3277,
      "neighb": 3278,
      "envelope": 3279,
      "triang": 3280,
      "drawer": 3281,
      "pian": 3282,
      "attra": 3283,
      "suppl": 3284,
      "computer": 3285,
      "octop": 3286,
      "shroom": 3287,
      "crawl": 3288,
      "ffin": 3289,
      "cture": 3290,
      "rules": 3291,
      "lively": 3292,
      "uncle": 3293,
      "gloomy": 3294,
      "carto": 3295,
      "intelligent": 3296,
      "scooter": 3297,
      "Grace": 3298,
      "speed": 3299,
      "piano": 3300,
      "package": 3301,
      "shaking": 3302,
      "bin": 3303,
      "helmet": 3304,
      "crystal": 3305,
      "needle": 3306,
      "swee": 3307,
      "hurry": 3308,
      "ubby": 3309,
      "mushroom": 3310,
      "collar": 3311,
      "pho": 3312,
      "parade": 3313,
      "creatures": 3314,
      "jug": 3315,
      "rub": 3316,
      "uddy": 3317,
      "œThat": 3318,
      "octopus": 3319,
      "twirled": 3320,
      "photo": 3321,
      "Henry": 3322,
      "erable": 3323,
      "chance": 3324,
      "alert": 3325,
      "cli": 3326,
      "stic": 3327,
      "miserable": 3328,
      "icycle": 3329,
      "thief": 3330,
      "ener": 3331,
      "zebra": 3332,
      "Before": 3333,
      "cycle": 3334,
      "station": 3335,
      "soldier": 3336,
      "az": 3337,
      "pepper": 3338,
      "sailor": 3339,
      "sheet": 3340,
      "ceed": 3341,
      "disgust": 3342,
      "separ": 3343,
      "five": 3344,
      "Annie": 3345,
      "stretched": 3346,
      "anywhere": 3347,
      "Brownie": 3348,
      "dug": 3349,
      "trap": 3350,
      "tion": 3351,
      "fireman": 3352,
      "bicycle": 3353,
      "ignorant": 3354,
      "Charlie": 3355,
      "repe": 3356,
      "wishes": 3357,
      "seal": 3358,
      "skip": 3359,
      "bandage": 3360,
      "knot": 3361,
      "ckets": 3362,
      "stickers": 3363,
      "Mag": 3364,
      "radio": 3365,
      "helpless": 3366,
      "bounced": 3367,
      "hood": 3368,
      "Bun": 3369,
      "trash": 3370,
      "secon": 3371,
      "belt": 3372,
      "leash": 3373,
      "turkey": 3374,
      "practiced": 3375,
      "gie": 3376,
      "cob": 3377,
      "respectful": 3378,
      "attractive": 3379,
      "ador": 3380,
      "ffle": 3381,
      "letters": 3382,
      "cap": 3383,
      "lollipop": 3384,
      "impat": 3385,
      "Everything": 3386,
      "camp": 3387,
      "pasta": 3388,
      "stirred": 3389,
      "Bet": 3390,
      "por": 3391,
      "jeep": 3392,
      "Jerry": 3393,
      "nobody": 3394,
      "chubby": 3395,
      "ummer": 3396,
      "compassionate": 3397,
      "gir": 3398,
      "pigeon": 3399,
      "thread": 3400,
      "Tweetie": 3401,
      "distur": 3402,
      "quar": 3403,
      "listening": 3404,
      "club": 3405,
      "muffin": 3406,
      "screw": 3407,
      "ccoli": 3408,
      "bet": 3409,
      "trum": 3410,
      "decorate": 3411,
      "cocoa": 3412,
      "brighter": 3413,
      "pressed": 3414,
      "tire": 3415,
      "competitive": 3416,
      "impatient": 3417,
      "aff": 3418,
      "otter": 3419,
      "theart": 3420,
      "opard": 3421,
      "tray": 3422,
      "arian": 3423,
      "succeed": 3424,
      "scoop": 3425,
      "further": 3426,
      "Sandy": 3427,
      "Snow": 3428,
      "troubled": 3429,
      "Lilly": 3430,
      "igator": 3431,
      "ost": 3432,
      "olin": 3433,
      "tooth": 3434,
      "itself": 3435,
      "attic": 3436,
      "candle": 3437,
      "mug": 3438,
      "nuts": 3439,
      "fis": 3440,
      "melon": 3441,
      "iest": 3442,
      "pun": 3443,
      "restless": 3444,
      "starts": 3445,
      "vine": 3446,
      "somewhere": 3447,
      "Danny": 3448,
      "glasses": 3449,
      "shoe": 3450,
      "spir": 3451,
      "cards": 3452,
      "aur": 3453,
      "knock": 3454,
      "Did": 3455,
      "ino": 3456,
      "disgusting": 3457,
      "dess": 3458,
      "carpet": 3459,
      "adorable": 3460,
      "anyway": 3461,
      "Is": 3462,
      "shouts": 3463,
      "repair": 3464,
      "gor": 3465,
      "Red": 3466,
      "restaur": 3467,
      "fearful": 3468,
      "leopard": 3469,
      "pants": 3470,
      "clu": 3471,
      "mask": 3472,
      "waffle": 3473,
      "envious": 3474,
      "ded": 3475,
      "aked": 3476,
      "gain": 3477,
      "meow": 3478,
      "distant": 3479,
      "alligator": 3480,
      "heli": 3481,
      "copter": 3482,
      "hive": 3483,
      "broccoli": 3484,
      "filthy": 3485,
      "iastic": 3486,
      "sweetheart": 3487,
      "kers": 3488,
      "perform": 3489,
      "Cl": 3490,
      "enthusiastic": 3491,
      "afternoon": 3492,
      "hipp": 3493,
      "gn": 3494,
      "tube": 3495,
      "mission": 3496,
      "cooked": 3497,
      "exper": 3498,
      "Lee": 3499,
      "giggle": 3500,
      "bri": 3501,
      "helicopter": 3502,
      "hook": 3503,
      "unk": 3504,
      "monkeys": 3505,
      "hall": 3506,
      "complain": 3507,
      "harsh": 3508,
      "sie": 3509,
      "aroo": 3510,
      "angaroo": 3511,
      "restaurant": 3512,
      "admi": 3513,
      "sandbox": 3514,
      "pipe": 3515,
      "nowhere": 3516,
      "speak": 3517,
      "backpack": 3518,
      "meas": 3519,
      "poem": 3520,
      "country": 3521,
      "Maria": 3522,
      "barking": 3523,
      "bathtub": 3524,
      "Bunny": 3525,
      "trumpet": 3526,
      "aero": 3527,
      "ath": 3528,
      "squash": 3529,
      "quite": 3530,
      "Whis": 3531,
      "Baby": 3532,
      "cows": 3533,
      "Millie": 3534,
      "kangaroo": 3535,
      "mama": 3536,
      "Jess": 3537,
      "pit": 3538,
      "twist": 3539,
      "rice": 3540,
      "happier": 3541,
      "bur": 3542,
      "Mim": 3543,
      "ween": 3544,
      "sle": 3545,
      "admire": 3546,
      "Kate": 3547,
      "summer": 3548,
      "stared": 3549,
      "cricket": 3550,
      "Mimi": 3551,
      "vol": 3552,
      "cush": 3553,
      "message": 3554,
      "grabs": 3555,
      "firework": 3556,
      "didnâ": 3557,
      "ostrich": 3558,
      "sort": 3559,
      "human": 3560,
      "pilot": 3561,
      "impro": 3562,
      "mule": 3563,
      "modest": 3564,
      "zi": 3565,
      "paid": 3566,
      "bser": 3567,
      "gorilla": 3568,
      "spell": 3569,
      "finds": 3570,
      "Papa": 3571,
      "behave": 3572,
      "Harry": 3573,
      "meat": 3574,
      "obser": 3575,
      "dessert": 3576,
      "castles": 3577,
      "violin": 3578,
      "reco": 3579,
      "support": 3580,
      "hedge": 3581,
      "These": 3582,
      "rolling": 3583,
      "mill": 3584,
      "pulls": 3585,
      "wever": 3586,
      "tripped": 3587,
      "Buddy": 3588,
      "jellyfish": 3589,
      "paws": 3590,
      "resc": 3591,
      "rescue": 3592,
      "holes": 3593,
      "size": 3594,
      "yogurt": 3595,
      "hippo": 3596,
      "organize": 3597,
      "sport": 3598,
      "kne": 3599,
      "lk": 3600,
      "ucked": 3601,
      "recogn": 3602,
      "roared": 3603,
      "tick": 3604,
      "Sm": 3605,
      "forgave": 3606,
      "cats": 3607,
      "wheat": 3608,
      "Po": 3609,
      "purse": 3610,
      "tax": 3611,
      "bikes": 3612,
      "choice": 3613,
      "lions": 3614,
      "object": 3615,
      "dar": 3616,
      "pushing": 3617,
      "cact": 3618,
      "swinging": 3619,
      "split": 3620,
      "salt": 3621,
      "starting": 3622,
      "scold": 3623,
      "shade": 3624,
      "lightning": 3625,
      "oat": 3626,
      "buzz": 3627,
      "cano": 3628,
      "lands": 3629,
      "haircut": 3630,
      "Thanks": 3631,
      "triangle": 3632,
      "ache": 3633,
      "energy": 3634,
      "Whiskers": 3635,
      "teas": 3636,
      "math": 3637,
      "riding": 3638,
      "frowned": 3639,
      "learnt": 3640,
      "either": 3641,
      "porch": 3642,
      "dive": 3643,
      "tomato": 3644,
      "trains": 3645,
      "laun": 3646,
      "pole": 3647,
      "bubble": 3648,
      "luck": 3649,
      "sticker": 3650,
      "rod": 3651,
      "send": 3652,
      "panda": 3653,
      "wallet": 3654,
      "raft": 3655,
      "evening": 3656,
      "aled": 3657,
      "papers": 3658,
      "chalk": 3659,
      "bananas": 3660,
      "seum": 3661,
      "museum": 3662,
      "sweater": 3663,
      "inking": 3664,
      "palace": 3665,
      "jokes": 3666,
      "Tony": 3667,
      "appreci": 3668,
      "ris": 3669,
      "taxi": 3670,
      "strawberry": 3671,
      "shakes": 3672,
      "bears": 3673,
      "volcano": 3674,
      "shopkeeper": 3675,
      "inse": 3676,
      "boots": 3677,
      "fee": 3678,
      "spirit": 3679,
      "comet": 3680,
      "bby": 3681,
      "hadn": 3682,
      "neighbour": 3683,
      "James": 3684,
      "barrel": 3685,
      "fac": 3686,
      "offee": 3687,
      "silver": 3688,
      "alive": 3689,
      "smells": 3690,
      "sock": 3691,
      "reinde": 3692,
      "œYou": 3693,
      "steak": 3694,
      "laundry": 3695,
      "resp": 3696,
      "avoc": 3697,
      "astic": 3698,
      "cactus": 3699,
      "goal": 3700,
      "shield": 3701,
      "iron": 3702,
      "troph": 3703,
      "cel": 3704,
      "pushes": 3705,
      "visited": 3706,
      "judge": 3707,
      "iling": 3708,
      "putting": 3709,
      "magnet": 3710,
      "softly": 3711,
      "mild": 3712,
      "tricks": 3713,
      "resist": 3714,
      "notebook": 3715,
      "microphone": 3716,
      "drawings": 3717,
      "clapping": 3718,
      "chan": 3719,
      "colours": 3720,
      "leaned": 3721,
      "Flo": 3722,
      "shel": 3723,
      "edy": 3724,
      "shovel": 3725,
      "checked": 3726,
      "une": 3727,
      "zoomed": 3728,
      "falling": 3729,
      "planes": 3730,
      "trem": 3731,
      "comfort": 3732,
      "awe": 3733,
      "gro": 3734,
      "motorcycle": 3735,
      "belongs": 3736,
      "sprink": 3737,
      "climbing": 3738,
      "Maggie": 3739,
      "airport": 3740,
      "bulance": 3741,
      "penguin": 3742,
      "quarrel": 3743,
      "ambulance": 3744,
      "web": 3745,
      "marched": 3746,
      "shelter": 3747,
      "Kat": 3748,
      "counter": 3749,
      "pebble": 3750,
      "reindeer": 3751,
      "bol": 3752,
      "sau": 3753,
      "avail": 3754,
      "aeroplane": 3755,
      "Tr": 3756,
      "oy": 3757,
      "mas": 3758,
      "fields": 3759,
      "donâ": 3760,
      "dishes": 3761,
      "barks": 3762,
      "vator": 3763,
      "grapes": 3764,
      "coffee": 3765,
      "peek": 3766,
      "apologized": 3767,
      "yach": 3768,
      "soil": 3769,
      "skill": 3770,
      "stume": 3771,
      "elevator": 3772,
      "appl": 3773,
      "beam": 3774,
      "costume": 3775,
      "trophy": 3776,
      "vroom": 3777,
      "raining": 3778,
      "danger": 3779,
      "feelings": 3780,
      "hoping": 3781,
      "scope": 3782,
      "drops": 3783,
      "poke": 3784,
      "film": 3785,
      "rubber": 3786,
      "unhappy": 3787,
      "thanks": 3788,
      "chain": 3789,
      "enter": 3790,
      "shrimp": 3791,
      "medal": 3792,
      "available": 3793,
      "marry": 3794,
      "vend": 3795,
      "unlock": 3796,
      "kitty": 3797,
      "€“": 3798,
      "minute": 3799,
      "comm": 3800,
      "journ": 3801,
      "celery": 3802,
      "chanic": 3803,
      "Su": 3804,
      "loop": 3805,
      "Miss": 3806,
      "onion": 3807,
      "task": 3808,
      "eraser": 3809,
      "inclu": 3810,
      "page": 3811,
      "rhino": 3812,
      "yacht": 3813,
      "fisher": 3814,
      "imagine": 3815,
      "shouldn": 3816,
      "perfectly": 3817,
      "winter": 3818,
      "wool": 3819,
      "mechanic": 3820,
      "diary": 3821,
      "bbles": 3822,
      "ait": 3823,
      "Clara": 3824,
      "closely": 3825,
      "cardboard": 3826,
      "May": 3827,
      "magaz": 3828,
      "ense": 3829,
      "player": 3830,
      "eagerly": 3831,
      "Smith": 3832,
      "journal": 3833,
      "tap": 3834,
      "baking": 3835,
      "basketball": 3836,
      "quit": 3837,
      "glove": 3838,
      "iture": 3839,
      "urniture": 3840,
      "pted": 3841,
      "bey": 3842,
      "ction": 3843,
      "fog": 3844,
      "furniture": 3845,
      "hut": 3846,
      "stuffed": 3847,
      "vendor": 3848,
      "poss": 3849,
      "urch": 3850,
      "treasures": 3851,
      "headed": 3852,
      "breaks": 3853,
      "imagination": 3854,
      "pine": 3855,
      "nder": 3856,
      "nament": 3857,
      "church": 3858,
      "prune": 3859,
      "freez": 3860,
      "Sp": 3861,
      "wife": 3862,
      "cooler": 3863,
      "frogs": 3864,
      "second": 3865,
      "skull": 3866,
      "squi": 3867,
      "cups": 3868,
      "switch": 3869,
      "Instead": 3870,
      "between": 3871,
      "offer": 3872,
      "chor": 3873,
      "ides": 3874,
      "cheek": 3875,
      "petal": 3876,
      "sym": 3877,
      "swung": 3878,
      "factory": 3879,
      "affe": 3880,
      "uli": 3881,
      "oe": 3882,
      "football": 3883,
      "hotel": 3884,
      "reeze": 3885,
      "flame": 3886,
      "twink": 3887,
      "mm": 3888,
      "died": 3889,
      "golf": 3890,
      "shouting": 3891,
      "painter": 3892,
      "God": 3893,
      "Iâ": 3894,
      "mosqui": 3895,
      "seeing": 3896,
      "disappear": 3897,
      "attent": 3898,
      "blowing": 3899,
      "..": 3900,
      "ox": 3901,
      "tear": 3902,
      "Because": 3903,
      "heads": 3904,
      "peach": 3905,
      "ornament": 3906,
      "kele": 3907,
      "Wait": 3908,
      "keleton": 3909,
      "cauli": 3910,
      "video": 3911,
      "folder": 3912,
      "ccer": 3913,
      "mixer": 3914,
      "breathe": 3915,
      "crash": 3916,
      "oil": 3917,
      "throws": 3918,
      "pirates": 3919,
      "coal": 3920,
      "stamp": 3921,
      "created": 3922,
      "izes": 3923,
      "powder": 3924,
      "buck": 3925,
      "potato": 3926,
      "frame": 3927,
      "First": 3928,
      "angu": 3929,
      "crow": 3930,
      "sna": 3931,
      "cushion": 3932,
      "soccer": 3933,
      "True": 3934,
      "fisherman": 3935,
      "zzy": 3936,
      "weigh": 3937,
      "sunset": 3938,
      "Ste": 3939,
      "cable": 3940,
      "Car": 3941,
      "langu": 3942,
      "popped": 3943,
      "wipe": 3944,
      "horses": 3945,
      "parent": 3946,
      "umber": 3947,
      "azz": 3948,
      "symbol": 3949,
      "battery": 3950,
      "attention": 3951,
      "cauliflower": 3952,
      "skeleton": 3953,
      "laser": 3954,
      "Have": 3955,
      "forgotten": 3956,
      "weather": 3957,
      "itâ": 3958,
      "fishing": 3959,
      "celebrated": 3960,
      "enny": 3961,
      "Rosie": 3962,
      "since": 3963,
      "trail": 3964,
      "slept": 3965,
      "yoga": 3966,
      "maze": 3967,
      "shoo": 3968,
      "surround": 3969,
      "waving": 3970,
      "tip": 3971,
      "knob": 3972,
      "sneak": 3973,
      "giraffe": 3974,
      "anchor": 3975,
      "ceros": 3976,
      "dear": 3977,
      "trod": 3978,
      "lend": 3979,
      "introd": 3980,
      "chirp": 3981,
      "unpack": 3982,
      "flea": 3983,
      "Tina": 3984,
      "pas": 3985,
      "points": 3986,
      "sla": 3987,
      "point": 3988,
      "swamp": 3989,
      "glowing": 3990,
      "fireplace": 3991,
      "breeze": 3992,
      "tutor": 3993,
      "ckey": 3994,
      "sub": 3995,
      "medi": 3996,
      "sunglasses": 3997,
      "kingdom": 3998,
      "mop": 3999,
      "memories": 4000,
      "streng": 4001,
      "tuna": 4002,
      "rhinoceros": 4003,
      "bulb": 4004,
      "axe": 4005,
      "reve": 4006,
      "ding": 4007,
      "petals": 4008,
      "capt": 4009,
      "mistakes": 4010,
      "dancer": 4011,
      "chickens": 4012,
      "strength": 4013,
      "aking": 4014,
      "ceiling": 4015,
      "greedy": 4016,
      "hockey": 4017,
      "squirrels": 4018,
      "sir": 4019,
      "igloo": 4020,
      "cuss": 4021,
      "grin": 4022,
      "sniffed": 4023,
      "hanging": 4024,
      "grocer": 4025,
      "ws": 4026,
      "tress": 4027,
      "superhero": 4028,
      "experience": 4029,
      "argue": 4030,
      "kis": 4031,
      "golden": 4032,
      "napkin": 4033,
      "eaten": 4034,
      "sting": 4035,
      "staff": 4036,
      "bury": 4037,
      "trave": 4038,
      "musician": 4039,
      "skirt": 4040,
      "Wel": 4041,
      "Qu": 4042,
      "Welcome": 4043,
      "temple": 4044,
      "discuss": 4045,
      "mediately": 4046,
      "theater": 4047,
      "tol": 4048,
      "baseball": 4049,
      "uniform": 4050,
      "comed": 4051,
      "cared": 4052,
      "slipper": 4053,
      "surre": 4054,
      "welcomed": 4055,
      "short": 4056,
      "lime": 4057,
      "zipper": 4058,
      "shoulder": 4059,
      "quietly": 4060,
      "meeting": 4061,
      "microscope": 4062,
      "invest": 4063,
      "istol": 4064,
      "moves": 4065,
      "possible": 4066,
      "pinch": 4067,
      "cell": 4068,
      "warning": 4069,
      "flapped": 4070,
      "washer": 4071,
      "slippery": 4072,
      "fought": 4073,
      "accepted": 4074,
      "investig": 4075,
      "pistol": 4076,
      "miner": 4077,
      "throwing": 4078,
      "radish": 4079,
      "plastic": 4080,
      "calls": 4081,
      "bouncing": 4082,
      "erc": 4083,
      "creek": 4084,
      "kayak": 4085,
      "coats": 4086,
      "novel": 4087,
      "lawy": 4088,
      "sticky": 4089,
      "chim": 4090,
      "writing": 4091,
      "avocado": 4092,
      "armchair": 4093,
      "freezer": 4094,
      "lotion": 4095,
      "oking": 4096,
      "accept": 4097,
      "fauce": 4098,
      "suff": 4099,
      "ison": 4100,
      "makeup": 4101,
      "reef": 4102,
      "mystery": 4103,
      "rake": 4104,
      "tug": 4105,
      "quack": 4106,
      "investigate": 4107,
      "sailing": 4108,
      "regre": 4109,
      "cherries": 4110,
      "Zoe": 4111,
      "crib": 4112,
      "mattress": 4113,
      "presents": 4114,
      "exerc": 4115,
      "faucet": 4116,
      "oyster": 4117,
      "applau": 4118,
      "splashing": 4119,
      "ilet": 4120,
      "worth": 4121,
      "ticket": 4122,
      "collected": 4123,
      "iv": 4124,
      "dressed": 4125,
      "dishwasher": 4126,
      "Freddy": 4127,
      "prevent": 4128,
      "magazine": 4129,
      "wags": 4130,
      "sprayed": 4131,
      "inked": 4132,
      "happens": 4133,
      "toilet": 4134,
      "œItâ": 4135,
      "veil": 4136,
      "appro": 4137,
      "entered": 4138,
      "rush": 4139,
      "separate": 4140,
      "chess": 4141,
      "shrugged": 4142,
      "scolded": 4143,
      "cabinet": 4144,
      "alarm": 4145,
      "yield": 4146,
      "argu": 4147,
      "sigh": 4148,
      "regret": 4149,
      "blankets": 4150,
      "fant": 4151,
      "mosquito": 4152,
      "burned": 4153,
      "lawyer": 4154,
      "ignored": 4155,
      "tucked": 4156,
      "chimney": 4157,
      "attach": 4158,
      "si": 4159,
      "Milly": 4160,
      "hopes": 4161,
      "display": 4162,
      "Sad": 4163,
      "candles": 4164,
      "follows": 4165,
      "classroom": 4166,
      "kisses": 4167,
      "keeping": 4168,
      "puddles": 4169,
      "easily": 4170,
      "apart": 4171,
      "bathe": 4172,
      "chairs": 4173,
      "beef": 4174,
      "omed": 4175,
      "ival": 4176,
      "bother": 4177,
      "letting": 4178,
      "bang": 4179,
      "raz": 4180,
      "fortun": 4181,
      "poo": 4182,
      "straight": 4183,
      "terin": 4184,
      "veterin": 4185,
      "language": 4186,
      "veterinarian": 4187,
      "stable": 4188,
      "trusted": 4189,
      "sizes": 4190,
      "wardrobe": 4191,
      "vision": 4192,
      "Sun": 4193,
      "model": 4194,
      "caring": 4195,
      "razor": 4196,
      "slice": 4197,
      "jewelry": 4198,
      "blinked": 4199,
      "shower": 4200,
      "rooms": 4201,
      "missile": 4202,
      "apr": 4203,
      "Ruby": 4204,
      "opera": 4205,
      "lawn": 4206,
      "couraged": 4207,
      "However": 4208,
      "crossed": 4209,
      "una": 4210,
      "oak": 4211,
      "blouse": 4212,
      "atched": 4213,
      "incre": 4214,
      "newspaper": 4215,
      "telephone": 4216,
      "trade": 4217,
      "lab": 4218,
      "label": 4219,
      "claws": 4220,
      "puzzles": 4221,
      "hon": 4222,
      "tornado": 4223,
      "scratch": 4224,
      "bookcase": 4225,
      "blueberries": 4226,
      "recomm": 4227,
      "amazem": 4228,
      "amazement": 4229,
      "llen": 4230,
      "ctions": 4231,
      "ups": 4232,
      "squeezed": 4233,
      "ady": 4234,
      "People": 4235,
      "kneel": 4236,
      "bookshelf": 4237,
      "ah": 4238,
      "delay": 4239,
      "Snowy": 4240,
      "subway": 4241,
      "cts": 4242,
      "gym": 4243,
      "ga": 4244,
      "valley": 4245,
      "Co": 4246,
      "grill": 4247,
      "fume": 4248,
      "request": 4249,
      "dent": 4250,
      "Ex": 4251,
      "steam": 4252,
      "crawling": 4253,
      "dic": 4254,
      "serve": 4255,
      "shrink": 4256,
      "poked": 4257,
      "sham": 4258,
      "ason": 4259,
      "€.": 4260,
      "file": 4261,
      "television": 4262,
      "spear": 4263,
      "padd": 4264,
      "following": 4265,
      "squeeze": 4266,
      "mint": 4267,
      "improve": 4268,
      "licks": 4269,
      "float": 4270,
      "dem": 4271,
      "holid": 4272,
      "fortunately": 4273,
      "holiday": 4274,
      "lumber": 4275,
      "ms": 4276,
      "Not": 4277,
      "demand": 4278,
      "shampoo": 4279,
      "ringing": 4280,
      "perfume": 4281,
      "drain": 4282,
      "diction": 4283,
      "cliff": 4284,
      "nore": 4285,
      "prepar": 4286,
      "Happ": 4287,
      "lier": 4288,
      "ribbon": 4289,
      "helper": 4290,
      "immediately": 4291,
      "recei": 4292,
      "melt": 4293,
      "dictionary": 4294,
      "Katie": 4295,
      "lic": 4296,
      "fest": 4297,
      "waste": 4298,
      "decis": 4299,
      "isn": 4300,
      "growled": 4301,
      "Ol": 4302,
      "begged": 4303,
      "bill": 4304,
      "matches": 4305,
      "blood": 4306,
      "Sha": 4307,
      "fuel": 4308,
      "ideas": 4309,
      "warmth": 4310,
      "mustache": 4311,
      "sneeze": 4312,
      "rail": 4313,
      "umb": 4314,
      "hic": 4315,
      "invite": 4316,
      "gear": 4317,
      "Liz": 4318,
      "Luck": 4319,
      "birdcage": 4320,
      "vehic": 4321,
      "alright": 4322,
      "rabbits": 4323,
      "calend": 4324,
      "Each": 4325,
      "yucky": 4326,
      "weep": 4327,
      "pected": 4328,
      "fallen": 4329,
      "Ollie": 4330,
      "bbie": 4331,
      "ase": 4332,
      "Luckily": 4333,
      "married": 4334,
      "worms": 4335,
      "reverse": 4336,
      "Ok": 4337,
      "Rac": 4338,
      "mist": 4339,
      "pastry": 4340,
      "auto": 4341,
      "vac": 4342,
      "laught": 4343,
      "asis": 4344,
      "festival": 4345,
      "structure": 4346,
      "surprises": 4347,
      "King": 4348,
      "below": 4349,
      "bravely": 4350,
      "understanding": 4351,
      "calendar": 4352,
      "oasis": 4353,
      "mob": 4354,
      "wandered": 4355,
      "dire": 4356,
      "laughter": 4357,
      "hurting": 4358,
      "œNo": 4359,
      "omeday": 4360,
      "whip": 4361,
      "pages": 4362,
      "hearts": 4363,
      "inky": 4364,
      "buckle": 4365,
      "anna": 4366,
      "cus": 4367,
      "surf": 4368,
      "reaches": 4369,
      "buried": 4370,
      "safety": 4371,
      "apron": 4372,
      "Happy": 4373,
      "automob": 4374,
      "junk": 4375,
      "captain": 4376,
      "admir": 4377,
      "strawberries": 4378,
      "Joy": 4379,
      "myself": 4380,
      "Rachel": 4381,
      "relaxed": 4382,
      "ignore": 4383,
      "sandcastle": 4384,
      "skills": 4385,
      "invit": 4386,
      "Steve": 4387,
      "plates": 4388,
      "root": 4389,
      "pastel": 4390,
      "spade": 4391,
      "moments": 4392,
      "htray": 4393,
      "quiz": 4394,
      "Buzz": 4395,
      "gers": 4396,
      "ashtray": 4397,
      "Poppy": 4398,
      "raise": 4399,
      "bathrobe": 4400,
      "Its": 4401,
      "beamed": 4402,
      "'.": 4403,
      "Betsy": 4404,
      "snapped": 4405,
      "friger": 4406,
      "uggling": 4407,
      "frigerator": 4408,
      "someday": 4409,
      "saving": 4410,
      "Everyday": 4411,
      "refrigerator": 4412,
      "received": 4413,
      "wag": 4414,
      "offic": 4415,
      "Yuck": 4416,
      "weap": 4417,
      "earlier": 4418,
      "icing": 4419,
      "harbor": 4420,
      "compl": 4421,
      "teaching": 4422,
      "whist": 4423,
      "sparkling": 4424,
      "spots": 4425,
      "oper": 4426,
      "vanished": 4427,
      "insisted": 4428,
      "Penny": 4429,
      "supply": 4430,
      "bumped": 4431,
      "socks": 4432,
      "perfor": 4433,
      "surrender": 4434,
      "Abig": 4435,
      "Ready": 4436,
      "blackboard": 4437,
      "dried": 4438,
      "Frank": 4439,
      "Someone": 4440,
      "jail": 4441,
      "prepare": 4442,
      "Abigail": 4443,
      "jewels": 4444,
      "insect": 4445,
      "spending": 4446,
      "nce": 4447,
      "scattered": 4448,
      "Je": 4449,
      "settled": 4450,
      "Dav": 4451,
      "scooped": 4452,
      "permission": 4453,
      "sparkle": 4454,
      "yawned": 4455,
      "chy": 4456,
      "boot": 4457,
      "destroyed": 4458,
      "achie": 4459,
      "mbers": 4460,
      "replace": 4461,
      "tease": 4462,
      "balanc": 4463,
      "beans": 4464,
      "hardly": 4465,
      "dare": 4466,
      "encouraged": 4467,
      "solved": 4468,
      "disturb": 4469,
      "antly": 4470,
      "lemonade": 4471,
      "shot": 4472,
      "pride": 4473,
      "hanger": 4474,
      "sters": 4475,
      "remove": 4476,
      "pulling": 4477,
      "sits": 4478,
      "decorations": 4479,
      "hate": 4480,
      "conf": 4481,
      "license": 4482,
      "tore": 4483,
      "cuddled": 4484,
      "snap": 4485,
      "izard": 4486,
      "respons": 4487,
      "dresses": 4488,
      "David": 4489,
      "daisy": 4490,
      "vor": 4491,
      "members": 4492,
      "praised": 4493,
      "punish": 4494,
      "ggy": 4495,
      "chirping": 4496,
      "hits": 4497,
      "equ": 4498,
      "suffer": 4499,
      "dam": 4500,
      "Mmm": 4501,
      "Ma": 4502,
      "fastest": 4503,
      "buzzing": 4504,
      "Goodbye": 4505,
      "billboard": 4506,
      "mention": 4507,
      "patiently": 4508,
      "bleed": 4509,
      "cartoon": 4510,
      "rhy": 4511,
      "automobile": 4512,
      "nies": 4513,
      "appreciate": 4514,
      "poppy": 4515,
      "wizard": 4516,
      "destination": 4517,
      "nation": 4518,
      "taller": 4519,
      "crun": 4520,
      "mall": 4521,
      "wigg": 4522,
      "tour": 4523,
      "digg": 4524,
      "washing": 4525,
      "hers": 4526,
      "wine": 4527,
      "none": 4528,
      "climbs": 4529,
      "ium": 4530,
      "vy": 4531,
      "bling": 4532,
      "bab": 4533,
      "Cat": 4534,
      "obey": 4535,
      "restore": 4536,
      "believed": 4537,
      "digging": 4538,
      "approached": 4539,
      "hesit": 4540,
      "fied": 4541,
      "score": 4542,
      "passport": 4543,
      "nie": 4544,
      "deeper": 4545,
      "proper": 4546,
      "homes": 4547,
      "heat": 4548,
      "chamber": 4549,
      "Ha": 4550,
      "mitten": 4551,
      "poison": 4552,
      "sausage": 4553,
      "cobweb": 4554,
      "struggling": 4555,
      "difference": 4556,
      "tongue": 4557,
      "hurri": 4558,
      "hills": 4559,
      "pillows": 4560,
      "sneezed": 4561,
      "Spike": 4562,
      "infant": 4563,
      "upstairs": 4564,
      "provide": 4565,
      "brain": 4566,
      "thrilled": 4567,
      "panic": 4568,
      "twisted": 4569,
      "universe": 4570,
      "glowed": 4571,
      "ometer": 4572,
      "vacation": 4573,
      "setting": 4574,
      "worse": 4575,
      "cin": 4576,
      "Exc": 4577,
      "repeat": 4578,
      "parts": 4579,
      "versity": 4580,
      "event": 4581,
      "comp": 4582,
      "ef": 4583,
      "examine": 4584,
      "shooting": 4585,
      "airplane": 4586,
      "mometer": 4587,
      "remained": 4588,
      "hurricane": 4589,
      "thermometer": 4590,
      "ues": 4591,
      "contain": 4592,
      "plays": 4593,
      "sparkles": 4594,
      "folded": 4595,
      "ranch": 4596,
      "neighborhood": 4597,
      "orang": 4598,
      "chores": 4599,
      "oranges": 4600,
      "floated": 4601,
      "university": 4602,
      "oh": 4603,
      "weeks": 4604,
      "leak": 4605,
      "lets": 4606,
      "paints": 4607,
      "Ouch": 4608,
      "bites": 4609,
      "talent": 4610,
      "wre": 4611,
      "floating": 4612,
      "adium": 4613,
      "measured": 4614,
      "sip": 4615,
      "ipping": 4616,
      "girls": 4617,
      "fixing": 4618,
      "stadium": 4619,
      "grinned": 4620,
      "!'": 4621,
      "Cla": 4622,
      "thumb": 4623,
      "during": 4624,
      "!\",": 4625,
      "surrounded": 4626,
      "osed": 4627,
      "toe": 4628,
      "supposed": 4629,
      "rhyth": 4630,
      "Unfortunately": 4631,
      "paused": 4632,
      "lia": 4633,
      "massage": 4634,
      "cherry": 4635,
      "brings": 4636,
      "chip": 4637,
      "gifts": 4638,
      "tch": 4639,
      "fut": 4640,
      "sprinkles": 4641,
      "scatter": 4642,
      "fas": 4643,
      "lick": 4644,
      "memory": 4645,
      "future": 4646,
      "teaspo": 4647,
      "œIâ": 4648,
      "grey": 4649,
      "disco": 4650,
      "bbled": 4651,
      "signs": 4652,
      "collection": 4653,
      "bun": 4654,
      "jazz": 4655,
      "marbles": 4656,
      "wisdom": 4657,
      "Fro": 4658,
      "perm": 4659,
      "Remember": 4660,
      "actually": 4661,
      "flood": 4662,
      "discovery": 4663,
      "uses": 4664,
      "lily": 4665,
      "unite": 4666,
      "tide": 4667,
      "vehicle": 4668,
      "sunrise": 4669,
      "uggle": 4670,
      "Like": 4671,
      "stomach": 4672,
      "œThatâ": 4673,
      "palm": 4674,
      "meowed": 4675,
      "Mor": 4676,
      "urge": 4677,
      "owned": 4678,
      "elephants": 4679,
      "exercise": 4680,
      "rang": 4681,
      "fy": 4682,
      "lugg": 4683,
      "zag": 4684,
      "mailman": 4685,
      "weapon": 4686,
      "Jam": 4687,
      "chewed": 4688,
      "decision": 4689,
      "sore": 4690,
      "observe": 4691,
      "Zoom": 4692,
      "muscle": 4693,
      "luggage": 4694,
      "Mic": 4695,
      "zipped": 4696,
      "Jan": 4697,
      "cartoons": 4698,
      "tomatoes": 4699,
      "fascin": 4700,
      "Ke": 4701,
      "scur": 4702,
      "Spark": 4703,
      "lest": 4704,
      "curled": 4705,
      "oxy": 4706,
      "Remy": 4707,
      "sunlight": 4708,
      "iers": 4709,
      "melted": 4710,
      "ities": 4711,
      "chirped": 4712,
      "wed": 4713,
      "collecting": 4714,
      "spill": 4715,
      "For": 4716,
      "grape": 4717,
      "py": 4718,
      "teaspoon": 4719,
      "mineral": 4720,
      "Sharing": 4721,
      "Luna": 4722,
      "problems": 4723,
      "bak": 4724,
      "tracks": 4725,
      "jogging": 4726,
      "rhythm": 4727,
      "lip": 4728,
      "wherever": 4729,
      "manage": 4730,
      "beat": 4731,
      "mountains": 4732,
      "sliding": 4733,
      "ipment": 4734,
      "price": 4735,
      "safar": 4736,
      "receive": 4737,
      "equipment": 4738,
      "laid": 4739,
      "satis": 4740,
      "Nina": 4741,
      "growl": 4742,
      "agreement": 4743,
      "watered": 4744,
      "Thom": 4745,
      "admiring": 4746,
      "bricks": 4747,
      "sed": 4748,
      "skipping": 4749,
      "unic": 4750,
      "twigs": 4751,
      "kindly": 4752,
      "patterns": 4753,
      "petted": 4754,
      "potatoes": 4755,
      "seats": 4756,
      "Uncle": 4757,
      "soldiers": 4758,
      "emer": 4759,
      "nes": 4760,
      "gloves": 4761,
      "joyed": 4762,
      "Sh": 4763,
      "copper": 4764,
      "quake": 4765,
      "continue": 4766,
      "ordered": 4767,
      "strangers": 4768,
      "Lu": 4769,
      "rum": 4770,
      "overjoyed": 4771,
      "watches": 4772,
      "gotten": 4773,
      "pigs": 4774,
      "pets": 4775,
      "Thomas": 4776,
      "whistling": 4777,
      "Beth": 4778,
      "flavor": 4779,
      "beside": 4780,
      "œThank": 4781,
      "safari": 4782,
      "network": 4783,
      "prayed": 4784,
      "ddy": 4785,
      "Gre": 4786,
      "Chlo": 4787,
      "peered": 4788,
      "stam": 4789,
      "ric": 4790,
      "operation": 4791,
      "Moral": 4792,
      "weight": 4793,
      "invitation": 4794,
      "marching": 4795,
      "Sunny": 4796,
      "Julie": 4797,
      "glitter": 4798,
      "lips": 4799,
      "famil": 4800,
      "wooden": 4801,
      "Suzy": 4802,
      "earthquake": 4803,
      "igzag": 4804,
      "eagle": 4805,
      "beg": 4806,
      "Josh": 4807,
      "attached": 4808,
      "doggy": 4809,
      "grocery": 4810,
      "company": 4811,
      "drinks": 4812,
      "navy": 4813,
      "acorns": 4814,
      "raised": 4815,
      "disagreed": 4816,
      "spike": 4817,
      "works": 4818,
      "weren": 4819,
      "Yum": 4820,
      "orts": 4821,
      "Chloe": 4822,
      "esca": 4823,
      "sidewalk": 4824,
      "Kay": 4825,
      "burning": 4826,
      "mister": 4827,
      "rested": 4828,
      "onwards": 4829,
      "\",": 4830,
      "ffic": 4831,
      "Chir": 4832,
      "happiest": 4833,
      "racing": 4834,
      "brid": 4835,
      "spoons": 4836,
      "rust": 4837,
      "crashed": 4838,
      "beha": 4839,
      "crunchy": 4840,
      "Really": 4841,
      "peanuts": 4842,
      "whistled": 4843,
      "Donâ": 4844,
      "pies": 4845,
      "hurried": 4846,
      "officer": 4847,
      "brick": 4848,
      "prepared": 4849,
      "freshed": 4850,
      "Nut": 4851,
      "history": 4852,
      "refreshed": 4853,
      "Itâ": 4854,
      "bowed": 4855,
      "clearing": 4856,
      "scratched": 4857,
      "remembers": 4858,
      "exact": 4859,
      "fireworks": 4860,
      "œWe": 4861,
      "escaped": 4862,
      "lu": 4863,
      "dinosaurs": 4864,
      "menu": 4865,
      "bridges": 4866,
      "By": 4867,
      "planted": 4868,
      "buildings": 4869,
      "revealed": 4870,
      "comfy": 4871,
      "turning": 4872,
      "easier": 4873,
      "olive": 4874,
      "brand": 4875,
      "screams": 4876,
      "Jamie": 4877,
      "hated": 4878,
      "Ye": 4879,
      "selling": 4880,
      "recognized": 4881,
      "chat": 4882,
      "accompl": 4883,
      "crept": 4884,
      "precious": 4885,
      "rained": 4886,
      "challen": 4887,
      "Sadly": 4888,
      "bones": 4889,
      "pupp": 4890,
      "rr": 4891,
      "muddy": 4892,
      "drinking": 4893,
      "Coco": 4894,
      "nails": 4895,
      "iggling": 4896,
      "beds": 4897,
      "waits": 4898,
      "sings": 4899,
      "style": 4900,
      "settle": 4901,
      "ends": 4902,
      "simp": 4903,
      "Something": 4904,
      "osity": 4905,
      "stom": 4906,
      "spaceship": 4907,
      "served": 4908,
      "solut": 4909,
      "reminder": 4910,
      "measuring": 4911,
      "slip": 4912,
      "Sunday": 4913,
      "herb": 4914,
      "fash": 4915,
      "lecture": 4916,
      "Hop": 4917,
      "perched": 4918,
      "Big": 4919,
      "shadows": 4920,
      "pops": 4921,
      "vic": 4922,
      "responsible": 4923,
      "wonders": 4924,
      "zing": 4925,
      "pitch": 4926,
      "voices": 4927,
      "œCan": 4928,
      "cuddle": 4929,
      "pedal": 4930,
      "everyday": 4931,
      "comforted": 4932,
      "anytime": 4933,
      "circus": 4934,
      "bene": 4935,
      "cutting": 4936,
      "aren": 4937,
      "soared": 4938,
      "swo": 4939,
      "trapped": 4940,
      "Mo": 4941,
      "whatever": 4942,
      "zigzag": 4943,
      "disturbed": 4944,
      "freeze": 4945,
      "sages": 4946,
      "peel": 4947,
      "tastes": 4948,
      "landscape": 4949,
      "apologize": 4950,
      "shopping": 4951,
      "succeeded": 4952,
      "secrets": 4953,
      "villag": 4954,
      "Anne": 4955,
      "printer": 4956,
      "velvet": 4957,
      "Hanna": 4958,
      "Rab": 4959,
      "items": 4960,
      "drag": 4961,
      "yawn": 4962,
      "traffic": 4963,
      "fashion": 4964,
      "prints": 4965,
      "steel": 4966,
      "practicing": 4967,
      "oats": 4968,
      "writ": 4969,
      "bringing": 4970,
      "lap": 4971,
      "sisters": 4972,
      "exactly": 4973,
      "ising": 4974,
      "rescu": 4975,
      "loaded": 4976,
      "visiting": 4977,
      "stumes": 4978,
      "activ": 4979,
      "simple": 4980,
      "Lucky": 4981,
      "six": 4982,
      "costumes": 4983,
      "answers": 4984,
      "olives": 4985,
      "izing": 4986,
      "brushed": 4987,
      "rul": 4988,
      "soak": 4989,
      "Fol": 4990,
      "mouths": 4991,
      "breaking": 4992,
      "Follow": 4993,
      "curiosity": 4994,
      "Claire": 4995,
      "neath": 4996,
      "ishes": 4997,
      "waist": 4998,
      "encourage": 4999,
      "catching": 5000,
      "ky": 5001,
      "mare": 5002,
      "aded": 5003,
      "knel": 5004,
      "fascinated": 5005,
      "knelt": 5006,
      "grandmother": 5007,
      "oxygen": 5008,
      "image": 5009,
      "leather": 5010,
      "underground": 5011,
      "villagers": 5012,
      "beneath": 5013,
      "Watch": 5014,
      "waffles": 5015,
      "unicorn": 5016,
      "Rabbit": 5017,
      "tune": 5018,
      "sadness": 5019,
      "recognize": 5020,
      "Floppy": 5021,
      "hoo": 5022,
      "inda": 5023,
      "unlocked": 5024,
      "Always": 5025,
      "sterday": 5026,
      "rele": 5027,
      "downstairs": 5028,
      "creation": 5029,
      "recommend": 5030,
      "tremble": 5031,
      "monsters": 5032,
      "Tiny": 5033,
      "Those": 5034,
      "heel": 5035,
      "chef": 5036,
      "rs": 5037,
      "Nutty": 5038,
      "ena": 5039,
      "eats": 5040,
      "iggy": 5041,
      "nightmare": 5042,
      "pupil": 5043,
      "bank": 5044,
      "caut": 5045,
      "wanting": 5046,
      "Lul": 5047,
      "jogged": 5048,
      "lung": 5049,
      "stripes": 5050,
      "Betty": 5051,
      "doctors": 5052,
      "ripped": 5053,
      "blueberry": 5054,
      "soaring": 5055,
      "stro": 5056,
      "instru": 5057,
      "lemons": 5058,
      "gained": 5059,
      "struggled": 5060,
      "punished": 5061,
      "wondering": 5062,
      "bleeding": 5063,
      "Tilly": 5064,
      "wreck": 5065,
      "fetch": 5066,
      "Jessie": 5067,
      "Adam": 5068,
      "examined": 5069,
      "nicer": 5070,
      "planned": 5071,
      "guessed": 5072,
      "machines": 5073,
      "stealing": 5074,
      "situ": 5075,
      "argued": 5076,
      "piles": 5077,
      "area": 5078,
      "stirring": 5079,
      "Hannah": 5080,
      "herbs": 5081,
      "printed": 5082,
      "Quack": 5083,
      "inch": 5084,
      "united": 5085,
      "Aunt": 5086,
      "challenge": 5087,
      "Pip": 5088,
      "victory": 5089,
      "tugged": 5090,
      "studied": 5091,
      "firemen": 5092,
      "wagging": 5093,
      "west": 5094,
      "introduc": 5095,
      "bare": 5096,
      "wink": 5097,
      "zooming": 5098,
      "accidents": 5099,
      "satisfied": 5100,
      "Leave": 5101,
      "winning": 5102,
      "increase": 5103,
      "deser": 5104,
      "exit": 5105,
      "properly": 5106,
      "Pr": 5107,
      "Lulu": 5108,
      "shivering": 5109,
      "sniff": 5110,
      "bunnies": 5111,
      "Chirpy": 5112,
      "gathering": 5113,
      "mice": 5114,
      "choo": 5115,
      "letâ": 5116,
      "outdoors": 5117,
      "winner": 5118,
      "wid": 5119,
      "uct": 5120,
      "fer": 5121,
      "twirling": 5122,
      "firefight": 5123,
      "decorated": 5124,
      "teasing": 5125,
      "slapped": 5126,
      "xu": 5127,
      "supplies": 5128,
      "Abby": 5129,
      "yelling": 5130,
      "seag": 5131,
      "neighbourhood": 5132,
      "underneath": 5133,
      "seagull": 5134,
      "flutter": 5135,
      "prov": 5136,
      "sights": 5137,
      "tickets": 5138,
      "Susan": 5139,
      "brushes": 5140,
      "De": 5141,
      "fully": 5142,
      "pancakes": 5143,
      "introduce": 5144,
      "Bubbles": 5145,
      "begin": 5146,
      "pearl": 5147,
      "burrow": 5148,
      "rides": 5149,
      "sire": 5150,
      "struck": 5151,
      "mixing": 5152,
      "siren": 5153,
      "peaches": 5154,
      "crum": 5155,
      "vow": 5156,
      "weighed": 5157,
      "released": 5158,
      "loving": 5159,
      "draws": 5160,
      "sides": 5161,
      "cones": 5162,
      "permit": 5163,
      "Out": 5164,
      "confident": 5165,
      "sneaked": 5166,
      "release": 5167,
      "Mir": 5168,
      "rubbing": 5169,
      "indy": 5170,
      "realize": 5171,
      "baked": 5172,
      ".'": 5173,
      "grant": 5174,
      "zero": 5175,
      "youn": 5176,
      "stored": 5177,
      "instructions": 5178,
      "luxu": 5179,
      "spiders": 5180,
      "muffins": 5181,
      "pinched": 5182,
      "budge": 5183,
      "competition": 5184,
      "studying": 5185,
      "lines": 5186,
      "pockets": 5187,
      "œLook": 5188,
      "Bir": 5189,
      "ica": 5190,
      "opin": 5191,
      "shoulders": 5192,
      "bunch": 5193,
      "frosting": 5194,
      "rol": 5195,
      "strike": 5196,
      "decides": 5197,
      "giggling": 5198,
      "emergen": 5199,
      "ourselves": 5200,
      "marks": 5201,
      "stitch": 5202,
      "stamps": 5203,
      "travell": 5204,
      "œHello": 5205,
      "En": 5206,
      "prunes": 5207,
      "broom": 5208,
      "strings": 5209,
      "pears": 5210,
      "Carl": 5211,
      "scurried": 5212,
      "€”": 5213,
      "strip": 5214,
      "ruler": 5215,
      "Lou": 5216,
      "amb": 5217,
      "Wed": 5218,
      "ago": 5219,
      "Wednes": 5220,
      "repeated": 5221,
      "hunt": 5222,
      "claps": 5223,
      "poking": 5224,
      "Mi": 5225,
      "ruin": 5226,
      "ots": 5227,
      "anta": 5228,
      "œThis": 5229,
      "slim": 5230,
      "Our": 5231,
      "Put": 5232,
      "Santa": 5233,
      "kicking": 5234,
      "stretching": 5235,
      "kins": 5236,
      "hest": 5237,
      "motion": 5238,
      "demanded": 5239,
      "smar": 5240,
      "Linda": 5241,
      "flap": 5242,
      "Bad": 5243,
      "neighbors": 5244,
      "mentioned": 5245,
      "Both": 5246,
      "protected": 5247,
      "Luke": 5248,
      "goodnight": 5249,
      "touching": 5250,
      "Jeff": 5251,
      "control": 5252,
      "tonight": 5253,
      "keeps": 5254,
      "writes": 5255,
      "sweeties": 5256,
      "powers": 5257,
      "ona": 5258,
      "youth": 5259,
      "beard": 5260,
      "ler": 5261,
      "Tues": 5262,
      "fab": 5263,
      "buckets": 5264,
      "ribbons": 5265,
      "Momo": 5266,
      "uctantly": 5267,
      "tiest": 5268,
      "prettiest": 5269,
      "soaked": 5270,
      "parked": 5271,
      "camping": 5272,
      "icky": 5273,
      "zie": 5274,
      "barely": 5275,
      "horns": 5276,
      "bouncy": 5277,
      "Kayla": 5278,
      "Get": 5279,
      "east": 5280,
      "discovering": 5281,
      "pect": 5282,
      "acted": 5283,
      "die": 5284,
      "œDonâ": 5285,
      "result": 5286,
      "sorting": 5287,
      "twinkling": 5288,
      "surface": 5289,
      "exture": 5290,
      "Hoppy": 5291,
      "Fri": 5292,
      "stole": 5293,
      "vies": 5294,
      "œWhy": 5295,
      "texture": 5296,
      "gazed": 5297,
      "hi": 5298,
      "vowed": 5299,
      "weed": 5300,
      "babies": 5301,
      "purred": 5302,
      "guys": 5303,
      "Afterwards": 5304,
      "movies": 5305,
      "steep": 5306,
      "eight": 5307,
      "cautious": 5308,
      "cub": 5309,
      "nexpected": 5310,
      "silence": 5311,
      "expect": 5312,
      "Lizzy": 5313,
      "zen": 5314,
      "Time": 5315,
      "rac": 5316,
      "applauded": 5317,
      "ni": 5318,
      "entire": 5319,
      "loose": 5320,
      "shock": 5321,
      "pebbles": 5322,
      "Two": 5323,
      "sports": 5324,
      "tickle": 5325,
      "guns": 5326,
      "isten": 5327,
      "urged": 5328,
      "dragons": 5329,
      "aster": 5330,
      "luxury": 5331,
      "Uh": 5332,
      "honk": 5333,
      "cky": 5334,
      "dragged": 5335,
      "cot": 5336,
      "unexpected": 5337,
      "shelves": 5338,
      "catches": 5339,
      "emergency": 5340,
      "chewing": 5341,
      "rocking": 5342,
      "Keep": 5343,
      "Wednesday": 5344,
      "mittens": 5345,
      "muscles": 5346,
      "strum": 5347,
      "ults": 5348,
      "Jenna": 5349,
      "completed": 5350,
      "dolphins": 5351,
      "Cindy": 5352,
      "fabric": 5353,
      "curtains": 5354,
      "blink": 5355,
      "ladybug": 5356,
      "gle": 5357,
      "Listen": 5358,
      "Wo": 5359,
      "Suzie": 5360,
      "ib": 5361,
      "introduced": 5362,
      "patience": 5363,
      "chases": 5364,
      "direction": 5365,
      "ledge": 5366,
      "frozen": 5367,
      "chips": 5368,
      "season": 5369,
      "importance": 5370,
      "flat": 5371,
      "solution": 5372,
      "reluctantly": 5373,
      "wound": 5374,
      "figured": 5375,
      "highest": 5376,
      "Lena": 5377,
      "shivered": 5378,
      "ppers": 5379,
      "librarian": 5380,
      "contest": 5381,
      "rocked": 5382,
      "achieve": 5383,
      "Matt": 5384,
      "screaming": 5385,
      "pouring": 5386,
      "Ja": 5387,
      "Slow": 5388,
      "cough": 5389,
      "theirs": 5390,
      "sled": 5391,
      "Dolly": 5392,
      "aky": 5393,
      "hugging": 5394,
      "sorted": 5395,
      "staring": 5396,
      "drives": 5397,
      "include": 5398,
      "ads": 5399,
      "roaring": 5400,
      "œOh": 5401,
      "effort": 5402,
      "Mart": 5403,
      "rings": 5404,
      "youâ": 5405,
      "planets": 5406,
      "lied": 5407,
      "ien": 5408,
      "mater": 5409,
      "Tuesday": 5410,
      "materi": 5411,
      "haust": 5412,
      "safer": 5413,
      "policeman": 5414,
      "curly": 5415,
      "situation": 5416,
      "foods": 5417,
      "cert": 5418,
      "awesome": 5419,
      "canâ": 5420,
      "matched": 5421,
      "ki": 5422,
      "rees": 5423,
      "sighs": 5424,
      "knowledge": 5425,
      "rip": 5426,
      "plent": 5427,
      "irts": 5428,
      "passing": 5429,
      "balancing": 5430,
      "shined": 5431,
      "flags": 5432,
      "master": 5433,
      "exhaust": 5434,
      "dared": 5435,
      "Mira": 5436,
      "plenty": 5437,
      "towels": 5438,
      "homework": 5439,
      "slimy": 5440,
      "bravery": 5441,
      "Day": 5442,
      "truly": 5443,
      "pretends": 5444,
      "dies": 5445,
      "accomplish": 5446,
      "zookeeper": 5447,
      "cheering": 5448,
      "wedding": 5449,
      "Ba": 5450,
      "goals": 5451,
      "Nothing": 5452,
      "arriage": 5453,
      "Jacob": 5454,
      "rainbows": 5455,
      "cuts": 5456,
      "swoop": 5457,
      "Pinky": 5458,
      "jamas": 5459,
      "Tara": 5460,
      "ents": 5461,
      "nect": 5462,
      "sausages": 5463,
      "threat": 5464,
      "packing": 5465,
      "rance": 5466,
      "patted": 5467,
      "caused": 5468,
      "boom": 5469,
      "paintings": 5470,
      "colored": 5471,
      "reaching": 5472,
      "worker": 5473,
      "student": 5474,
      "resting": 5475,
      "Sn": 5476,
      "Excuse": 5477,
      "radishes": 5478,
      "arguing": 5479,
      "tles": 5480,
      "sobb": 5481,
      "spraying": 5482,
      "jects": 5483,
      "growling": 5484,
      "blooming": 5485,
      "Lizz": 5486,
      "...": 5487,
      "crumbs": 5488,
      "waiter": 5489,
      "Bird": 5490,
      "struggle": 5491,
      "exhausted": 5492,
      "sweets": 5493,
      "vin": 5494,
      "vanish": 5495,
      "sticking": 5496,
      "Lizzie": 5497,
      "Quick": 5498,
      "mane": 5499,
      "pout": 5500,
      "markers": 5501,
      "kneeled": 5502,
      "paddled": 5503,
      "ud": 5504,
      "Jessica": 5505,
      "sway": 5506,
      "startled": 5507,
      "cubes": 5508,
      "written": 5509,
      "tails": 5510,
      "rescued": 5511,
      "nets": 5512,
      "inviting": 5513,
      "dusty": 5514,
      "sen": 5515,
      "traveled": 5516,
      "Julia": 5517,
      "matching": 5518,
      "expected": 5519,
      "reveal": 5520,
      "pots": 5521,
      "roads": 5522,
      "guest": 5523,
      "bottles": 5524,
      "singer": 5525,
      "Pipp": 5526,
      "dresser": 5527,
      "immer": 5528,
      "cost": 5529,
      "learns": 5530,
      "Take": 5531,
      "marriage": 5532,
      "project": 5533,
      "fir": 5534,
      "creating": 5535,
      "princesses": 5536,
      "regretted": 5537,
      "bert": 5538,
      "bloomed": 5539,
      "Yeah": 5540,
      "bars": 5541,
      "trembling": 5542,
      "ripe": 5543,
      "replaced": 5544,
      "arrive": 5545,
      "recorded": 5546,
      "pite": 5547,
      "isies": 5548,
      "snail": 5549,
      "pencils": 5550,
      "Fox": 5551,
      "chuck": 5552,
      "included": 5553,
      "disagree": 5554,
      "tum": 5555,
      "observed": 5556,
      "faced": 5557,
      "Enjoy": 5558,
      "Run": 5559,
      "daisies": 5560,
      "prayer": 5561,
      "ranny": 5562,
      "workers": 5563,
      "activities": 5564,
      "firm": 5565,
      "timer": 5566,
      "pajamas": 5567,
      "seesaw": 5568,
      "wires": 5569,
      "uggles": 5570,
      "removed": 5571,
      "darkness": 5572,
      "organizing": 5573,
      "worries": 5574,
      "ventured": 5575,
      "bend": 5576,
      "countryside": 5577,
      "stare": 5578,
      "ranger": 5579,
      "opening": 5580,
      "completely": 5581,
      "Ah": 5582,
      "Fe": 5583,
      "leader": 5584,
      "angled": 5585,
      "fairies": 5586,
      "wasted": 5587,
      "relief": 5588,
      "odd": 5589,
      "reply": 5590,
      "Che": 5591,
      "storekeeper": 5592,
      "belly": 5593,
      "wow": 5594,
      "owners": 5595,
      "fault": 5596,
      "agrees": 5597,
      "Johnson": 5598,
      "folding": 5599,
      "partic": 5600,
      "polishing": 5601,
      "quacked": 5602,
      "stern": 5603,
      "usually": 5604,
      "rious": 5605,
      "rubs": 5606,
      "copy": 5607,
      "Sque": 5608,
      "becoming": 5609,
      "mets": 5610,
      "Slowly": 5611,
      "flames": 5612,
      "Being": 5613,
      "kites": 5614,
      "penguins": 5615,
      "poems": 5616,
      "applaud": 5617,
      "wasnâ": 5618,
      "everybody": 5619,
      "Larry": 5620,
      "slap": 5621,
      "melting": 5622,
      "gg": 5623,
      "healed": 5624,
      "squealed": 5625,
      "scales": 5626,
      "thro": 5627,
      "Doggy": 5628,
      "coloured": 5629,
      "helmets": 5630,
      "Sur": 5631,
      "Jones": 5632,
      "shaped": 5633,
      "rist": 5634,
      "logs": 5635,
      "crabs": 5636,
      "throat": 5637,
      "Prin": 5638,
      "marked": 5639,
      "opinion": 5640,
      "tractor": 5641,
      "laying": 5642,
      "robb": 5643,
      "crowd": 5644,
      "dipped": 5645,
      "len": 5646,
      "twinkle": 5647,
      "lollipops": 5648,
      "allo": 5649,
      "seems": 5650,
      "cash": 5651,
      "teaches": 5652,
      "groceries": 5653,
      "polished": 5654,
      "knights": 5655,
      "rolls": 5656,
      "staying": 5657,
      "provided": 5658,
      "valued": 5659,
      "peeking": 5660,
      "interested": 5661,
      "dentist": 5662,
      "scra": 5663,
      "snakes": 5664,
      "iding": 5665,
      "Christ": 5666,
      "Stay": 5667,
      "June": 5668,
      "blows": 5669,
      "Many": 5670,
      "cautiously": 5671,
      "cracked": 5672,
      "lamb": 5673,
      "Sophia": 5674,
      "wallow": 5675,
      "cure": 5676,
      "filling": 5677,
      "Lau": 5678,
      "zes": 5679,
      "faraway": 5680,
      "desert": 5681,
      "protecting": 5682,
      "misses": 5683,
      "winked": 5684,
      "actions": 5685,
      "warn": 5686,
      "freed": 5687,
      "signed": 5688,
      "balanced": 5689,
      "swallow": 5690,
      "Bess": 5691,
      "younger": 5692,
      "closes": 5693,
      "wandering": 5694,
      "fuzzy": 5695,
      "chuckled": 5696,
      "listens": 5697,
      "iar": 5698,
      "pastries": 5699,
      "single": 5700,
      "beads": 5701,
      "familiar": 5702,
      "particular": 5703,
      "Without": 5704,
      "crackers": 5705,
      "roses": 5706,
      "however": 5707,
      "cous": 5708,
      "directions": 5709,
      "œMommy": 5710,
      "igi": 5711,
      "splashes": 5712,
      "ene": 5713,
      "froze": 5714,
      "naps": 5715,
      "Sim": 5716,
      "rusty": 5717,
      "baker": 5718,
      "Abbie": 5719,
      "Mel": 5720,
      "Mon": 5721,
      "roots": 5722,
      "itchy": 5723,
      "yesterday": 5724,
      "snowballs": 5725,
      "Jazz": 5726,
      "restored": 5727,
      "twis": 5728,
      "œWhatâ": 5729,
      "bi": 5730,
      "delivery": 5731,
      "cent": 5732,
      "Gigi": 5733,
      "fluttered": 5734,
      "hops": 5735,
      "Everybody": 5736,
      "gaze": 5737,
      "forehead": 5738,
      "lined": 5739,
      "Boo": 5740,
      "swooped": 5741,
      "Laura": 5742,
      "suitcase": 5743,
      "wiggled": 5744,
      "Christmas": 5745,
      "somebody": 5746,
      "toss": 5747,
      "gar": 5748,
      "Pam": 5749,
      "sweat": 5750,
      "remo": 5751,
      "bumpy": 5752,
      "refle": 5753,
      "sew": 5754,
      "Sparky": 5755,
      "swirl": 5756,
      "slam": 5757,
      "Mickey": 5758,
      "awake": 5759,
      "€˜": 5760,
      "photos": 5761,
      "twin": 5762,
      "pastels": 5763,
      "celebration": 5764,
      "trips": 5765,
      "ker": 5766,
      "atches": 5767,
      "pedals": 5768,
      "Nick": 5769,
      "backed": 5770,
      "tallest": 5771,
      "yan": 5772,
      "cashier": 5773,
      "ences": 5774,
      "determin": 5775,
      "char": 5776,
      "remote": 5777,
      "darker": 5778,
      "nectar": 5779,
      "determination": 5780,
      "drif": 5781,
      "ility": 5782,
      "speaking": 5783,
      "sequ": 5784,
      "acting": 5785,
      "Jon": 5786,
      "secure": 5787,
      "--": 5788,
      "Pandy": 5789,
      "Milo": 5790,
      "knees": 5791,
      "insist": 5792,
      "piggy": 5793,
      "complaining": 5794,
      "yum": 5795,
      "lies": 5796,
      "miles": 5797,
      "quid": 5798,
      "recording": 5799,
      "silent": 5800,
      "sneaky": 5801,
      "pleasure": 5802,
      "health": 5803,
      "videos": 5804,
      "Woof": 5805,
      "accomplishment": 5806,
      "Fine": 5807,
      "Chris": 5808,
      "liquid": 5809,
      "Zip": 5810,
      "entrance": 5811,
      "ongest": 5812,
      "?\",": 5813,
      "shirts": 5814,
      "delivered": 5815,
      "rockets": 5816,
      "wears": 5817,
      "Emmy": 5818,
      "Any": 5819,
      "glee": 5820,
      "Jay": 5821,
      "opp": 5822,
      "Mikey": 5823,
      "tricked": 5824,
      "Stella": 5825,
      "itches": 5826,
      "Roar": 5827,
      "mesmer": 5828,
      "Squ": 5829,
      "burst": 5830,
      "cheeks": 5831,
      "Wil": 5832,
      "flake": 5833,
      "beyond": 5834,
      "afterwards": 5835,
      "consequ": 5836,
      "Buzzy": 5837,
      "hissed": 5838,
      "insects": 5839,
      "fits": 5840,
      "stays": 5841,
      "bowls": 5842,
      "ks": 5843,
      "Excited": 5844,
      "Rob": 5845,
      "joking": 5846,
      "seven": 5847,
      "farther": 5848,
      "tickled": 5849,
      "sobbed": 5850,
      "ths": 5851,
      "stolen": 5852,
      "affes": 5853,
      "Princess": 5854,
      "scaring": 5855,
      "deal": 5856,
      "Days": 5857,
      "attack": 5858,
      "stem": 5859,
      "sandcastles": 5860,
      "sense": 5861,
      "mance": 5862,
      "tricky": 5863,
      "rule": 5864,
      "pause": 5865,
      "masks": 5866,
      "covers": 5867,
      "performance": 5868,
      "anger": 5869,
      "œCome": 5870,
      "adding": 5871,
      "instrum": 5872,
      "giraffes": 5873,
      "calmed": 5874,
      "talented": 5875,
      "handful": 5876,
      "Robbie": 5877,
      "?'": 5878,
      "Honey": 5879,
      "rever": 5880,
      "tangled": 5881,
      "indeed": 5882,
      "candies": 5883,
      "lett": 5884,
      "smarter": 5885,
      "scarves": 5886,
      "pered": 5887,
      "Maya": 5888,
      "toed": 5889,
      "Bon": 5890,
      "achieved": 5891,
      "behavi": 5892,
      "choices": 5893,
      "consequences": 5894,
      "bumps": 5895,
      "stain": 5896,
      "leading": 5897,
      "yourselves": 5898,
      "Water": 5899,
      "Olive": 5900,
      "reads": 5901,
      "ortun": 5902,
      "batteries": 5903,
      "Robby": 5904,
      "impossible": 5905,
      "hesitated": 5906,
      "behaved": 5907,
      "puppet": 5908,
      "badge": 5909,
      "wrist": 5910,
      "itor": 5911,
      "Shh": 5912,
      "cans": 5913,
      "beginning": 5914,
      "Granny": 5915,
      "Mat": 5916,
      "ory": 5917,
      "leaning": 5918,
      "paddle": 5919,
      "Fire": 5920,
      "mixture": 5921,
      "lower": 5922,
      "bows": 5923,
      "explorers": 5924,
      "Ki": 5925,
      "darling": 5926,
      "magnets": 5927,
      "kicks": 5928,
      "clowns": 5929,
      "Martha": 5930,
      "Mad": 5931,
      "outfit": 5932,
      "Karen": 5933,
      "recommended": 5934,
      "seeker": 5935,
      "weeping": 5936,
      "gracefully": 5937,
      "Meow": 5938,
      "ners": 5939,
      "Robert": 5940,
      "Very": 5941,
      "œLet": 5942,
      "bakery": 5943,
      "inst": 5944,
      "firefighters": 5945,
      "guy": 5946,
      "Great": 5947,
      "Bee": 5948,
      "salty": 5949,
      "improved": 5950,
      "swept": 5951,
      "deserve": 5952,
      "iled": 5953,
      "stroked": 5954,
      "swims": 5955,
      "flapping": 5956,
      "wipes": 5957,
      "Baa": 5958,
      "mushrooms": 5959,
      "complained": 5960,
      "Friends": 5961,
      "hider": 5962,
      "Mine": 5963,
      "Ear": 5964,
      "Ryan": 5965,
      "orted": 5966,
      "steer": 5967,
      "knocks": 5968,
      "dots": 5969,
      "thorn": 5970,
      "Snuggles": 5971,
      "ply": 5972,
      "teased": 5973,
      "Mabel": 5974,
      "objects": 5975,
      "ops": 5976,
      "parties": 5977,
      "Abi": 5978,
      "œDo": 5979,
      "third": 5980,
      "travelled": 5981,
      "Vroom": 5982,
      "blings": 5983,
      "tigers": 5984,
      "hearing": 5985,
      "ounce": 5986,
      "basement": 5987,
      "cupcakes": 5988,
      "Surpr": 5989,
      "horiz": 5990,
      "Nobody": 5991,
      "fever": 5992,
      "œYouâ": 5993,
      "heading": 5994,
      "snuck": 5995,
      "seconds": 5996,
      "horizon": 5997,
      "siblings": 5998,
      "ana": 5999,
      "jackets": 6000,
      "Yummy": 6001,
      "Only": 6002,
      "Ca": 6003,
      "Jacky": 6004,
      "marker": 6005,
      "hallway": 6006,
      "smiley": 6007,
      "lighter": 6008,
      "ware": 6009,
      "snatched": 6010,
      "yells": 6011,
      "fluttering": 6012,
      "drums": 6013,
      "indro": 6014,
      "Fu": 6015,
      "œHi": 6016,
      "Janie": 6017,
      "dip": 6018,
      "Finn": 6019,
      "rect": 6020,
      "Rover": 6021,
      "ruining": 6022,
      "urry": 6023,
      "wrapping": 6024,
      "gems": 6025,
      "bedtime": 6026,
      "igning": 6027,
      "Along": 6028,
      "wouldnâ": 6029,
      "raindro": 6030,
      "neither": 6031,
      "buying": 6032,
      "mies": 6033,
      "click": 6034,
      "anno": 6035,
      "gued": 6036,
      "arrows": 6037,
      "webs": 6038,
      "paying": 6039,
      "puppies": 6040,
      "lettuce": 6041,
      "scrubbed": 6042,
      "celebrating": 6043,
      "families": 6044,
      "dollhouse": 6045,
      "annoy": 6046,
      "wins": 6047,
      "œWow": 6048,
      "creamy": 6049,
      "among": 6050,
      "rivers": 6051,
      "rumble": 6052,
      "peacefully": 6053,
      "scratches": 6054,
      "ivity": 6055,
      "Ral": 6056,
      "widened": 6057,
      "drifted": 6058,
      "wadd": 6059,
      "source": 6060,
      "tasks": 6061,
      "atur": 6062,
      "treehouse": 6063,
      "iles": 6064,
      "hides": 6065,
      "Cra": 6066,
      "Ralph": 6067,
      "Dr": 6068,
      "players": 6069,
      "wonâ": 6070,
      "icked": 6071,
      "repa": 6072,
      "willing": 6073,
      "Gina": 6074,
      "cuddly": 6075,
      "immering": 6076,
      "losing": 6077,
      "rewarded": 6078,
      "Ali": 6079,
      "Kiki": 6080,
      "squish": 6081,
      "Binky": 6082,
      "needles": 6083,
      "shrinking": 6084,
      "seas": 6085,
      "repaired": 6086,
      "creativity": 6087,
      "temper": 6088,
      "echo": 6089,
      "ids": 6090,
      "addie": 6091,
      "Whee": 6092,
      "Hoo": 6093,
      "including": 6094,
      "Sadie": 6095,
      "Maddie": 6096,
      "Jackie": 6097,
      "haw": 6098,
      "hael": 6099,
      "Try": 6100,
      "ude": 6101,
      "tiptoed": 6102,
      "hog": 6103,
      "tapped": 6104,
      "visitor": 6105,
      "creations": 6106,
      "grassy": 6107,
      "chefs": 6108,
      "ongrat": 6109,
      "rising": 6110,
      "minerals": 6111,
      "printing": 6112,
      "intri": 6113,
      "Ame": 6114,
      "separated": 6115,
      "sprinkled": 6116,
      "arran": 6117,
      "imagining": 6118,
      "chop": 6119,
      "gross": 6120,
      "granted": 6121,
      "Michael": 6122,
      "earn": 6123,
      "During": 6124,
      "tram": 6125,
      "fears": 6126,
      "ters": 6127,
      "ongratul": 6128,
      "Judy": 6129,
      "pans": 6130,
      "Simon": 6131,
      "Since": 6132,
      "tiss": 6133,
      "limes": 6134,
      "screwdriver": 6135,
      "stomped": 6136,
      "grabbing": 6137,
      "ouch": 6138,
      "backwards": 6139,
      "decorating": 6140,
      "pouted": 6141,
      "conne": 6142,
      "itude": 6143,
      "œMy": 6144,
      "dama": 6145,
      "damage": 6146,
      "forts": 6147,
      "hesitant": 6148,
      "peppers": 6149,
      "diving": 6150,
      "Thatâ": 6151,
      "todd": 6152,
      "stung": 6153,
      "wobb": 6154,
      "unpacked": 6155,
      "squares": 6156,
      "Beep": 6157,
      "Unt": 6158,
      "slower": 6159,
      "Squeaky": 6160,
      "Until": 6161,
      "planning": 6162,
      "sale": 6163,
      "Bluey": 6164,
      "ments": 6165,
      "onions": 6166,
      "beloved": 6167,
      "artist": 6168,
      "Earth": 6169,
      "Marie": 6170,
      "Todd": 6171,
      "suits": 6172,
      "materials": 6173,
      "Momma": 6174,
      "heavier": 6175,
      "peck": 6176,
      "center": 6177,
      "item": 6178,
      "avoid": 6179,
      "Oli": 6180,
      "Que": 6181,
      "raindrops": 6182,
      "growls": 6183,
      "promises": 6184,
      "wrink": 6185,
      "trampol": 6186,
      "audi": 6187,
      "spice": 6188,
      "pointy": 6189,
      "snowmen": 6190,
      "surroundings": 6191,
      "itched": 6192,
      "Lia": 6193,
      "forgiven": 6194,
      "recipe": 6195,
      "audience": 6196,
      "cousin": 6197,
      "ford": 6198,
      "rustling": 6199,
      "Cu": 6200,
      "neighbours": 6201,
      "ount": 6202,
      "blocking": 6203,
      "Ew": 6204,
      "Oops": 6205,
      "Pre": 6206,
      "Bang": 6207,
      "slices": 6208,
      "ido": 6209,
      "gobbled": 6210,
      "wiping": 6211,
      "temperature": 6212,
      "snowball": 6213,
      "Star": 6214,
      "hedgehog": 6215,
      "trampoline": 6216,
      "Queen": 6217,
      "wobbled": 6218,
      "windy": 6219,
      "helpers": 6220,
      "couple": 6221,
      "designed": 6222,
      "discussed": 6223,
      "woof": 6224,
      "mate": 6225,
      "Zara": 6226,
      "ornaments": 6227,
      "nif": 6228,
      "dreamt": 6229,
      "stool": 6230,
      "noses": 6231,
      "itted": 6232,
      "corners": 6233,
      "sailboat": 6234,
      "10": 6235,
      "Hold": 6236,
      "Back": 6237,
      "moo": 6238,
      "Frog": 6239,
      "pecked": 6240,
      "slammed": 6241,
      "hus": 6242,
      "swans": 6243,
      "eted": 6244,
      "afford": 6245,
      "iley": 6246,
      "feast": 6247,
      "hitting": 6248,
      "streets": 6249,
      "Zoey": 6250,
      "onge": 6251,
      "tissue": 6252,
      "action": 6253,
      "meals": 6254,
      "Love": 6255,
      "dads": 6256,
      "Li": 6257,
      "nine": 6258,
      "pon": 6259,
      "aside": 6260,
      "requested": 6261,
      "racco": 6262,
      "sponge": 6263,
      "forks": 6264,
      "sunflowers": 6265,
      "curiously": 6266,
      "vanilla": 6267,
      "reflection": 6268,
      "snowflake": 6269,
      "Although": 6270,
      "changing": 6271,
      "warnings": 6272,
      "astr": 6273,
      "dances": 6274,
      "prett": 6275,
      "plans": 6276,
      "praying": 6277,
      "Meg": 6278,
      "scor": 6279,
      "sparks": 6280,
      "zipping": 6281,
      "ref": 6282,
      "Fido": 6283,
      "dollars": 6284,
      "Ash": 6285,
      "coloring": 6286,
      "remembering": 6287,
      "adult": 6288,
      "screws": 6289,
      "breathed": 6290,
      "bits": 6291,
      "greeted": 6292,
      "intrigued": 6293,
      "Amelia": 6294,
      "ora": 6295,
      "sation": 6296,
      "cond": 6297,
      "duckling": 6298,
      "spreading": 6299,
      "forgets": 6300,
      "shops": 6301,
      "thrown": 6302,
      "chosen": 6303,
      "pose": 6304,
      "prettier": 6305,
      "twice": 6306,
      "tunnels": 6307,
      "onaut": 6308,
      "ias": 6309,
      "raincoat": 6310,
      "rotted": 6311,
      "hour": 6312,
      "Am": 6313,
      "potion": 6314,
      "Under": 6315,
      "grandparents": 6316,
      "spat": 6317,
      "touches": 6318,
      "astronaut": 6319,
      "lings": 6320,
      "husband": 6321,
      "enthusias": 6322,
      "enthusiasm": 6323,
      "Farm": 6324,
      "sailors": 6325,
      "gardener": 6326,
      "pens": 6327,
      "endy": 6328,
      "reason": 6329,
      "antic": 6330,
      "spikes": 6331,
      "scam": 6332,
      "ading": 6333,
      "superheroes": 6334,
      "wishing": 6335,
      "swords": 6336,
      "daring": 6337,
      "magician": 6338,
      "wraps": 6339,
      "spoonful": 6340,
      "mallow": 6341,
      "Davey": 6342,
      "shmallow": 6343,
      "least": 6344,
      "bras": 6345,
      "skunk": 6346,
      "reass": 6347,
      "dod": 6348,
      "counts": 6349,
      "Nice": 6350,
      "borrowed": 6351,
      "steady": 6352,
      "courag": 6353,
      "rotten": 6354,
      "weekend": 6355,
      "forgetting": 6356,
      "Squir": 6357,
      "bodies": 6358,
      "guests": 6359,
      "encourag": 6360,
      "flavors": 6361,
      "hopeful": 6362,
      "Sof": 6363,
      "Too": 6364,
      "neare": 6365,
      "heroes": 6366,
      "rains": 6367,
      "ounced": 6368,
      "snuggle": 6369,
      "correct": 6370,
      "sending": 6371,
      "mesmerized": 6372,
      "Wendy": 6373,
      "sever": 6374,
      "charac": 6375,
      "stroke": 6376,
      "Mouse": 6377,
      "buzzed": 6378,
      "ition": 6379,
      "Rain": 6380,
      "neatly": 6381,
      "grows": 6382,
      "oni": 6383,
      "amed": 6384,
      "certain": 6385,
      "Spl": 6386,
      "handsome": 6387,
      "mints": 6388,
      "feeding": 6389,
      "refresh": 6390,
      "marshmallow": 6391,
      "ades": 6392,
      "sim": 6393,
      "Squirrel": 6394,
      "delivering": 6395,
      "raccoon": 6396,
      "ann": 6397,
      "dived": 6398,
      "antha": 6399,
      "Samantha": 6400,
      "thatâ": 6401,
      "tty": 6402,
      "foc": 6403,
      "misch": 6404,
      "politely": 6405,
      "zebras": 6406,
      "suffering": 6407,
      "onward": 6408,
      "alien": 6409,
      "flight": 6410,
      "napkins": 6411,
      "Min": 6412,
      "warmer": 6413,
      "ping": 6414,
      "Maddy": 6415,
      "Farmer": 6416,
      "grum": 6417,
      "stands": 6418,
      "Frosty": 6419,
      "sneezing": 6420,
      "baths": 6421,
      "honked": 6422,
      "Ruth": 6423,
      "Holly": 6424,
      "defe": 6425,
      "rushing": 6426,
      "Des": 6427,
      "rup": 6428,
      "Never": 6429,
      "plucked": 6430,
      "crashing": 6431,
      "Bessie": 6432,
      "poster": 6433,
      "matters": 6434,
      "lifts": 6435,
      "lungs": 6436,
      "Birthday": 6437,
      "bba": 6438,
      "crew": 6439,
      "bage": 6440,
      "thud": 6441,
      "refreshing": 6442,
      "unsure": 6443,
      "seaweed": 6444,
      "joining": 6445,
      "watering": 6446,
      "increased": 6447,
      "students": 6448,
      "Choo": 6449,
      "pad": 6450,
      "resis": 6451,
      "toddler": 6452,
      "oatmeal": 6453,
      "preparing": 6454,
      "swallowed": 6455,
      "ropes": 6456,
      "glued": 6457,
      "œBut": 6458,
      "Ray": 6459,
      "Patch": 6460,
      "respond": 6461,
      "whispers": 6462,
      "Dani": 6463,
      "œMom": 6464,
      "toaster": 6465,
      "performed": 6466,
      "presses": 6467,
      "biting": 6468,
      "starfish": 6469,
      "smelling": 6470,
      "Owl": 6471,
      "leads": 6472,
      "trembled": 6473,
      "triangles": 6474,
      "obeyed": 6475,
      "wobbly": 6476,
      "lessons": 6477,
      "cushions": 6478,
      "postman": 6479,
      "Jod": 6480,
      "geese": 6481,
      "hawk": 6482,
      "œWell": 6483,
      "express": 6484,
      "Dog": 6485,
      "dancers": 6486,
      "Bubba": 6487,
      "adults": 6488,
      "talks": 6489,
      "sniffs": 6490,
      "scraped": 6491,
      "focused": 6492,
      "resisted": 6493,
      "Tuna": 6494,
      "merry": 6495,
      "panicked": 6496,
      "confli": 6497,
      "freedom": 6498,
      "necklaces": 6499,
      "Megan": 6500,
      "slips": 6501,
      "softer": 6502,
      "blast": 6503,
      "firmly": 6504,
      "waddled": 6505,
      "uzz": 6506,
      "puff": 6507,
      "Mina": 6508,
      "joyful": 6509,
      "Flops": 6510,
      "wri": 6511,
      "ados": 6512,
      "formed": 6513,
      "firefly": 6514,
      "tested": 6515,
      "worn": 6516,
      "encouraging": 6517,
      "behaving": 6518,
      "tempt": 6519,
      "tables": 6520,
      "dropping": 6521,
      "œWhere": 6522,
      "drawers": 6523,
      "frowning": 6524,
      "squeak": 6525,
      "Mean": 6526,
      "iona": 6527,
      "wiggle": 6528,
      "lifting": 6529,
      "Sofia": 6530,
      "Fuzzy": 6531,
      "nervously": 6532,
      "faded": 6533,
      "Se": 6534,
      "Freddie": 6535,
      "scampered": 6536,
      "belts": 6537,
      "drivers": 6538,
      "aven": 6539,
      "rout": 6540,
      "respected": 6541,
      "humans": 6542,
      "Fiona": 6543,
      "Flopsy": 6544,
      "drawn": 6545,
      "ev": 6546,
      "Ph": 6547,
      "appreciation": 6548,
      "bully": 6549,
      "spins": 6550,
      "Katy": 6551,
      "pours": 6552,
      "firefighter": 6553,
      "robber": 6554,
      "Spe": 6555,
      "quarreling": 6556,
      "thoughts": 6557,
      "pennies": 6558,
      "pigeons": 6559,
      "stacked": 6560,
      "twinkled": 6561,
      "throughout": 6562,
      "leapt": 6563,
      "Eva": 6564,
      "scient": 6565,
      "elf": 6566,
      "waterfall": 6567,
      "cept": 6568,
      "ease": 6569,
      "tar": 6570,
      "oky": 6571,
      "Spr": 6572,
      "Meanwhile": 6573,
      "asing": 6574,
      "tricycle": 6575,
      "bravest": 6576,
      "strongest": 6577,
      "avocados": 6578,
      "overcome": 6579,
      "months": 6580,
      "polar": 6581,
      "playtime": 6582,
      "inter": 6583,
      "notes": 6584,
      "conver": 6585,
      "gonna": 6586,
      "loading": 6587,
      "cosy": 6588,
      "prove": 6589,
      "wept": 6590,
      "Mother": 6591,
      "nood": 6592,
      "munch": 6593,
      "colder": 6594,
      "Jonny": 6595,
      "echoed": 6596,
      "scored": 6597,
      "wakes": 6598,
      "manag": 6599,
      "garbage": 6600,
      "playroom": 6601,
      "bots": 6602,
      "performing": 6603,
      "designs": 6604,
      "Hope": 6605,
      "bells": 6606,
      "Mae": 6607,
      "Splash": 6608,
      "Pretty": 6609,
      "bably": 6610,
      "ties": 6611,
      "sank": 6612,
      "amount": 6613,
      "forgiving": 6614,
      "flown": 6615,
      "assm": 6616,
      "sweetest": 6617,
      "Jojo": 6618,
      "probably": 6619,
      "marshmallows": 6620,
      "blinking": 6621,
      "Yesterday": 6622,
      "Isn": 6623,
      "pumpkins": 6624,
      "explorer": 6625,
      "guide": 6626,
      "iment": 6627,
      "robots": 6628,
      "squeezing": 6629,
      "tage": 6630,
      "œIf": 6631,
      "tossed": 6632,
      "causing": 6633,
      "engers": 6634,
      "dred": 6635,
      "...\"": 6636,
      "shown": 6637,
      "cobwebs": 6638,
      "Louise": 6639,
      "œOkay": 6640,
      "Despite": 6641,
      "congratul": 6642,
      "squishy": 6643,
      "Birdy": 6644,
      "healing": 6645,
      "passengers": 6646,
      "spices": 6647,
      "Curious": 6648,
      "tighter": 6649,
      "angels": 6650,
      "yielded": 6651,
      "Moo": 6652,
      "Green": 6653,
      "?!\"": 6654,
      "distra": 6655,
      "tying": 6656,
      "napping": 6657,
      "reversed": 6658,
      "Alright": 6659,
      "ilda": 6660,
      "pound": 6661,
      "fact": 6662,
      "ais": 6663,
      "compe": 6664,
      "Tam": 6665,
      "Ally": 6666,
      "til": 6667,
      "aimed": 6668,
      "Rocky": 6669,
      "ships": 6670,
      "sou": 6671,
      "giggles": 6672,
      "Still": 6673,
      "tran": 6674,
      "nearly": 6675,
      "pays": 6676,
      "Maisy": 6677,
      "Bru": 6678,
      "Hallo": 6679,
      "cas": 6680,
      "Auntie": 6681,
      "kittens": 6682,
      "elle": 6683,
      "Start": 6684,
      "quie": 6685,
      "licking": 6686,
      "instruments": 6687,
      "wider": 6688,
      "sadd": 6689,
      "sewing": 6690,
      "Halloween": 6691,
      "nuzz": 6692,
      "appreciated": 6693,
      "doorway": 6694,
      "conflict": 6695,
      "ists": 6696,
      "clues": 6697,
      "paintbrush": 6698,
      "brushing": 6699,
      "Surprise": 6700,
      "blocked": 6701,
      "Pippin": 6702,
      "pant": 6703,
      "evil": 6704,
      "breathing": 6705,
      "passports": 6706,
      "cottage": 6707,
      "Pippa": 6708,
      "scurry": 6709,
      "paths": 6710,
      "heartbroken": 6711,
      "merma": 6712,
      "gaz": 6713,
      "maker": 6714,
      "slipping": 6715,
      "pins": 6716,
      "sweep": 6717,
      "soaking": 6718,
      "mailed": 6719,
      "results": 6720,
      "connected": 6721,
      "figures": 6722,
      "repeating": 6723,
      "grandchild": 6724,
      "twisting": 6725,
      "Becky": 6726,
      "behavior": 6727,
      "idey": 6728,
      "Ly": 6729,
      "within": 6730,
      "twisty": 6731,
      "rainy": 6732,
      "suffered": 6733,
      "crossing": 6734,
      "damaged": 6735,
      "tuck": 6736,
      "surrend": 6737,
      "Fight": 6738,
      "puzzled": 6739,
      "€,": 6740,
      "shovels": 6741,
      "Spidey": 6742,
      "buses": 6743,
      "hundred": 6744,
      "accomplished": 6745,
      "noodles": 6746,
      "roars": 6747,
      "shrug": 6748,
      "Feel": 6749,
      "surfing": 6750,
      "several": 6751,
      "bracele": 6752,
      "finite": 6753,
      "responsib": 6754,
      "Poor": 6755,
      "risks": 6756,
      "bracelets": 6757,
      "despite": 6758,
      "finishing": 6759,
      "luckily": 6760,
      "surrendered": 6761,
      "Ar": 6762,
      "toward": 6763,
      "fleas": 6764,
      "Eliz": 6765,
      "Up": 6766,
      "Eliza": 6767,
      "lending": 6768,
      "œPlease": 6769,
      "Goodnight": 6770,
      "streamers": 6771,
      "humming": 6772,
      "Frankie": 6773,
      "Kids": 6774,
      "supported": 6775,
      "byes": 6776,
      "cleaner": 6777,
      "lever": 6778,
      "Kelly": 6779,
      "shady": 6780,
      "oysters": 6781,
      "awoke": 6782,
      "quieter": 6783,
      "whose": 6784,
      "finitely": 6785,
      "goodbyes": 6786,
      "ignoring": 6787,
      "Janey": 6788,
      "œOf": 6789,
      "stitches": 6790,
      "Wally": 6791,
      "La": 6792,
      "ilder": 6793,
      "insp": 6794,
      "rather": 6795,
      "Pepper": 6796,
      "via": 6797,
      "Fighting": 6798,
      "ponies": 6799,
      "edges": 6800,
      "tablet": 6801,
      "fantastic": 6802,
      "rays": 6803,
      "Kevin": 6804,
      "cuddles": 6805,
      "tasting": 6806,
      "cca": 6807,
      "surfboard": 6808,
      "stroll": 6809,
      "cloudy": 6810,
      "slither": 6811,
      "frowns": 6812,
      "erk": 6813,
      "handing": 6814,
      "final": 6815,
      "snowflakes": 6816,
      "Does": 6817,
      "afar": 6818,
      "ppies": 6819,
      "cotton": 6820,
      "locks": 6821,
      "sped": 6822,
      "smal": 6823,
      "hairdresser": 6824,
      "presented": 6825,
      "Froggy": 6826,
      "thorns": 6827,
      "definitely": 6828,
      "abby": 6829,
      "kings": 6830,
      "coral": 6831,
      "Duck": 6832,
      "battle": 6833,
      "correctly": 6834,
      "gesture": 6835,
      "Trust": 6836,
      "smallest": 6837,
      "wisely": 6838,
      "vines": 6839,
      "reminding": 6840,
      "œNow": 6841,
      "deed": 6842,
      "driveway": 6843,
      "decisions": 6844,
      "peeled": 6845,
      "Bri": 6846,
      "blu": 6847,
      "rotting": 6848,
      "Bow": 6849,
      "newfound": 6850,
      "squeaked": 6851,
      "chopped": 6852,
      "swimsuit": 6853,
      "sharks": 6854,
      "greet": 6855,
      "prick": 6856,
      "Hurry": 6857,
      "grandson": 6858,
      "rior": 6859,
      "warrior": 6860,
      "arranged": 6861,
      "Bounce": 6862,
      "symbols": 6863,
      "weeds": 6864,
      "fishes": 6865,
      "simply": 6866,
      "Daniel": 6867,
      "recor": 6868,
      "experien": 6869,
      "except": 6870,
      "Jax": 6871,
      "granddaughter": 6872,
      "bandages": 6873,
      "respon": 6874,
      "wobble": 6875,
      "exercises": 6876,
      "stopping": 6877,
      "nasty": 6878,
      "response": 6879,
      "Fish": 6880,
      "gras": 6881,
      "occas": 6882,
      "date": 6883,
      "Say": 6884,
      "inspired": 6885,
      "tipped": 6886,
      "banged": 6887,
      "darlings": 6888,
      "travels": 6889,
      "Ana": 6890,
      "disturbing": 6891,
      "lent": 6892,
      "purr": 6893,
      "Bro": 6894,
      "force": 6895,
      "fills": 6896,
      "Stan": 6897,
      "ister": 6898,
      "Phil": 6899,
      "flipped": 6900,
      "Snowman": 6901,
      "Make": 6902,
      "œHey": 6903,
      "Roger": 6904,
      "footsteps": 6905,
      "pedaled": 6906,
      "covering": 6907,
      "ider": 6908,
      "Dory": 6909,
      "birdhouse": 6910,
      "Gus": 6911,
      "spits": 6912,
      "windowsill": 6913,
      "travelling": 6914,
      "Elle": 6915,
      "belle": 6916,
      "scarecrow": 6917,
      "punishment": 6918,
      "cheers": 6919,
      "planting": 6920,
      "forests": 6921,
      "apologised": 6922,
      "Excitedly": 6923,
      "mered": 6924,
      "chocolates": 6925,
      "Tig": 6926,
      "Joan": 6927,
      "Other": 6928,
      "Feeling": 6929,
      "congratulated": 6930,
      "Right": 6931,
      "ddie": 6932,
      "Patty": 6933,
      "believing": 6934,
      "ashed": 6935,
      "Playing": 6936,
      "trotted": 6937,
      "reassured": 6938,
      "reunited": 6939,
      "andas": 6940,
      "ali": 6941,
      "nodding": 6942,
      "encouragement": 6943,
      "poppies": 6944,
      "Lion": 6945,
      "essa": 6946,
      "images": 6947,
      "Nancy": 6948,
      "campfire": 6949,
      "solving": 6950,
      "magnif": 6951,
      "issa": 6952,
      "marve": 6953,
      "sails": 6954,
      "officers": 6955,
      "sess": 6956,
      "terrified": 6957,
      "backpacks": 6958,
      "Amanda": 6959,
      "Elly": 6960,
      "focus": 6961,
      "clerk": 6962,
      "Magic": 6963,
      "knots": 6964,
      "surprising": 6965,
      "Sweet": 6966,
      "activity": 6967,
      "Man": 6968,
      "yelped": 6969,
      "cour": 6970,
      "expert": 6971,
      "wrinkled": 6972,
      "Woo": 6973,
      "grip": 6974,
      "concert": 6975,
      "mood": 6976,
      "masterpiece": 6977,
      "changes": 6978,
      "speeding": 6979,
      "imagin": 6980,
      "testing": 6981,
      "chilly": 6982,
      "spills": 6983,
      "ives": 6984,
      "delayed": 6985,
      "Outside": 6986,
      "sniffing": 6987,
      "Jump": 6988,
      "braver": 6989,
      "pleaded": 6990,
      "gears": 6991,
      "comforting": 6992,
      "Charlot": 6993,
      "Startled": 6994,
      "Jean": 6995,
      "Deal": 6996,
      "calmly": 6997,
      "treated": 6998,
      "osh": 6999,
      "labels": 7000,
      "Sir": 7001,
      "mermaid": 7002,
      "Charlotte": 7003,
      "bless": 7004,
      "acle": 7005,
      "Quackers": 7006,
      "stumble": 7007,
      "suggestion": 7008,
      "discussing": 7009,
      "aware": 7010,
      "flowing": 7011,
      "acles": 7012,
      "Ty": 7013,
      "Wor": 7014,
      "spies": 7015,
      "worrying": 7016,
      "jars": 7017,
      "Anytime": 7018,
      "mischie": 7019,
      "displayed": 7020,
      "belongings": 7021,
      "seller": 7022,
      "magazines": 7023,
      "Carol": 7024,
      "bothering": 7025,
      "although": 7026,
      "crowns": 7027,
      "understands": 7028,
      "scent": 7029,
      "mischievous": 7030,
      "puck": 7031,
      "Ang": 7032,
      "Ava": 7033,
      "posit": 7034,
      "burying": 7035,
      "experienced": 7036,
      "admiration": 7037,
      "efforts": 7038,
      "ya": 7039,
      "refuse": 7040,
      "Spring": 7041,
      "height": 7042,
      "foxes": 7043,
      "emma": 7044,
      "unfortunately": 7045,
      "cons": 7046,
      "classm": 7047,
      "baskets": 7048,
      "colla": 7049,
      "buddy": 7050,
      "squaw": 7051,
      "toolbox": 7052,
      "bitten": 7053,
      "Snowball": 7054,
      "artwork": 7055,
      "Which": 7056,
      "Dear": 7057,
      "Eddie": 7058,
      "Lina": 7059,
      "Youâ": 7060,
      "dragonfly": 7061,
      "tweet": 7062,
      "Elsa": 7063,
      "Tess": 7064,
      "parted": 7065,
      "vehicles": 7066,
      "gazing": 7067,
      "packages": 7068,
      "fires": 7069,
      "Pu": 7070,
      "dump": 7071,
      "Open": 7072,
      "pandas": 7073,
      "momma": 7074,
      "sheets": 7075,
      "tumbled": 7076,
      "annoyed": 7077,
      "Satur": 7078,
      "sets": 7079,
      "seashells": 7080,
      "lody": 7081,
      "ugging": 7082,
      "wealth": 7083,
      "curl": 7084,
      "œThe": 7085,
      "warmly": 7086,
      "Sasha": 7087,
      "loops": 7088,
      "nibbled": 7089,
      "Care": 7090,
      "peas": 7091,
      "sunscreen": 7092,
      "desper": 7093,
      "Rudy": 7094,
      "serv": 7095,
      "business": 7096,
      "creams": 7097,
      "material": 7098,
      "Butter": 7099,
      "countered": 7100,
      "insisting": 7101,
      "œSure": 7102,
      "Tammy": 7103,
      "conqu": 7104,
      "Arr": 7105,
      "coach": 7106,
      "untied": 7107,
      "Helen": 7108,
      "prayers": 7109,
      "environ": 7110,
      "ka": 7111,
      "Jas": 7112,
      "conversation": 7113,
      "scram": 7114,
      "encountered": 7115,
      "sewed": 7116,
      "joins": 7117,
      "races": 7118,
      "purpose": 7119,
      "environment": 7120,
      "beaver": 7121,
      "teachers": 7122,
      "scurrying": 7123,
      "whispering": 7124,
      "aim": 7125,
      "argum": 7126,
      "ppa": 7127,
      "joked": 7128,
      "tilted": 7129,
      "Fortun": 7130,
      "Terry": 7131,
      "Twink": 7132,
      "orders": 7133,
      "hoops": 7134,
      "loses": 7135,
      "Zero": 7136,
      "cowboy": 7137,
      "Fortunately": 7138,
      "genie": 7139,
      "permitted": 7140,
      "jack": 7141,
      "tment": 7142,
      "airy": 7143,
      "troubles": 7144,
      "spooky": 7145,
      "Jason": 7146,
      "grandfather": 7147,
      "quarre": 7148,
      "slee": 7149,
      "Twinkle": 7150,
      "aint": 7151,
      "ening": 7152,
      "diamonds": 7153,
      "type": 7154,
      "Stitch": 7155,
      "Saturday": 7156,
      "dot": 7157,
      "scientist": 7158,
      "iscu": 7159,
      "pupils": 7160,
      "burger": 7161,
      "anticip": 7162,
      "Isa": 7163,
      "whim": 7164,
      "glittering": 7165,
      "Willi": 7166,
      "queens": 7167,
      "turtles": 7168,
      "Speedy": 7169,
      "shall": 7170,
      "beaming": 7171,
      "nearest": 7172,
      "tubes": 7173,
      "Ka": 7174,
      "œSee": 7175,
      "plugged": 7176,
      "tapping": 7177,
      "Grand": 7178,
      "stomers": 7179,
      "William": 7180,
      "rier": 7181,
      "Friend": 7182,
      "charge": 7183,
      "spells": 7184,
      "films": 7185,
      "visitors": 7186,
      "Izzy": 7187,
      "opportun": 7188,
      "declar": 7189,
      "untie": 7190,
      "Sleep": 7191,
      "dressing": 7192,
      "cleared": 7193,
      "Nana": 7194,
      "fins": 7195,
      "vinced": 7196,
      "Ricky": 7197,
      "quet": 7198,
      "angle": 7199,
      "convinced": 7200,
      "wasting": 7201,
      "customers": 7202,
      "Seeing": 7203,
      "nurses": 7204,
      "Eric": 7205,
      "Bobbie": 7206,
      "hover": 7207,
      "ching": 7208,
      "hunters": 7209,
      "swollen": 7210,
      "wounds": 7211,
      "rely": 7212,
      "goats": 7213,
      "sweaty": 7214,
      "Gu": 7215,
      "slowed": 7216,
      "Elsie": 7217,
      "Im": 7218,
      "rowed": 7219,
      "declared": 7220,
      "donkey": 7221,
      "Taking": 7222,
      "osite": 7223,
      "examining": 7224,
      "buckled": 7225,
      "Andre": 7226,
      "Finny": 7227,
      "opposite": 7228,
      "characters": 7229,
      "Bert": 7230,
      "ilities": 7231,
      "failed": 7232,
      "mun": 7233,
      "bathing": 7234,
      "active": 7235,
      "forgiveness": 7236,
      "trans": 7237,
      "tidied": 7238,
      "builder": 7239,
      "guessing": 7240,
      "sternly": 7241,
      "peep": 7242,
      "goodies": 7243,
      "Rebe": 7244,
      "scratching": 7245,
      "youngest": 7246,
      "seagulls": 7247,
      "Sk": 7248,
      "spy": 7249,
      "earned": 7250,
      "beeped": 7251,
      "rescuing": 7252,
      "Pick": 7253,
      "meowing": 7254,
      "Bongo": 7255,
      "questioned": 7256,
      "scrambled": 7257,
      "thanking": 7258,
      "shin": 7259,
      "grat": 7260,
      "jud": 7261,
      "dripping": 7262,
      "Tessa": 7263,
      "Peppa": 7264,
      "Con": 7265,
      "bou": 7266,
      "bouquet": 7267,
      "Chick": 7268,
      "plug": 7269,
      "drift": 7270,
      "anticipation": 7271,
      "Amber": 7272,
      "hike": 7273,
      "picnics": 7274,
      "nibble": 7275,
      "responded": 7276,
      "aisle": 7277,
      "floors": 7278,
      "responsibility": 7279,
      "smashed": 7280,
      "knocking": 7281,
      "attacked": 7282,
      "explains": 7283,
      "tires": 7284,
      "emerged": 7285,
      "Per": 7286,
      "discoveries": 7287,
      "lipstick": 7288,
      "Brian": 7289,
      "Ice": 7290,
      "stall": 7291,
      "gratitude": 7292,
      "Show": 7293,
      "œWho": 7294,
      "vibr": 7295,
      "conv": 7296,
      "zooms": 7297,
      "decoration": 7298,
      "Ni": 7299,
      "manners": 7300,
      "classmates": 7301,
      "vive": 7302,
      "signing": 7303,
      "Mam": 7304,
      "sprout": 7305,
      "Robo": 7306,
      "visits": 7307,
      "Step": 7308,
      "Pene": 7309,
      "ippy": 7310,
      "aeroplanes": 7311,
      "girlâ": 7312,
      "survive": 7313,
      "twists": 7314,
      "Gary": 7315,
      "tho": 7316,
      "inchworm": 7317,
      "Rebecca": 7318,
      "instantly": 7319,
      "tops": 7320,
      "wiggly": 7321,
      "Penelope": 7322,
      "munk": 7323,
      "seals": 7324,
      "poses": 7325,
      "Matilda": 7326,
      "breaths": 7327,
      "Sparkle": 7328,
      "Zoomy": 7329,
      "increasing": 7330,
      "rumbling": 7331,
      "Olivia": 7332,
      "sill": 7333,
      "shrunk": 7334,
      "brightest": 7335,
      "Behind": 7336,
      "ration": 7337,
      "elbow": 7338,
      "beehive": 7339,
      "munched": 7340,
      "bond": 7341,
      "manager": 7342,
      "shimmering": 7343,
      "purrs": 7344,
      "flaps": 7345,
      "idence": 7346,
      "winding": 7347,
      "Ri": 7348,
      "Crabby": 7349,
      "seashell": 7350,
      "groan": 7351,
      "flips": 7352,
      "Angel": 7353,
      "lowered": 7354,
      "movements": 7355,
      "swaying": 7356,
      "cracks": 7357,
      "honking": 7358,
      "ittered": 7359,
      "aliens": 7360,
      "ssss": 7361,
      "whoever": 7362,
      "argument": 7363,
      "chipmunk": 7364,
      "doorbell": 7365,
      "custo": 7366,
      "Ele": 7367,
      "Feli": 7368,
      "address": 7369,
      "announced": 7370,
      "prevented": 7371,
      "œGood": 7372,
      "Shelly": 7373,
      "switched": 7374,
      "taped": 7375,
      "mosquitoes": 7376,
      "chea": 7377,
      "wrigg": 7378,
      "Jilly": 7379,
      "Ashley": 7380,
      "offering": 7381,
      "Hoot": 7382,
      "nuzzled": 7383,
      "chant": 7384,
      "prickly": 7385,
      "Arrr": 7386,
      "Fre": 7387,
      "million": 7388,
      "swayed": 7389,
      "aret": 7390,
      "stetho": 7391,
      "designing": 7392,
      "destroying": 7393,
      "gasp": 7394,
      "shines": 7395,
      "cares": 7396,
      "badger": 7397,
      "minds": 7398,
      "erosity": 7399,
      "rats": 7400,
      "jobs": 7401,
      "dodged": 7402,
      "racie": 7403,
      "glimmering": 7404,
      "swap": 7405,
      "crawls": 7406,
      "Ever": 7407,
      "whistles": 7408,
      "Gracie": 7409,
      "smelt": 7410,
      "crops": 7411,
      "observing": 7412,
      "beautifully": 7413,
      "beating": 7414,
      "dangers": 7415,
      "knives": 7416,
      "exploded": 7417,
      "xy": 7418,
      "snaps": 7419,
      "recorder": 7420,
      "scolds": 7421,
      "Quickly": 7422,
      "Cara": 7423,
      "Over": 7424,
      "checkout": 7425,
      "scooters": 7426,
      "generosity": 7427,
      "stamped": 7428,
      "customer": 7429,
      "soo": 7430,
      "squin": 7431,
      "yl": 7432,
      "gues": 7433,
      "Ac": 7434,
      "honesty": 7435,
      "languages": 7436,
      "germs": 7437,
      "closing": 7438,
      "tummies": 7439,
      "stethoscope": 7440,
      "robbers": 7441,
      "paddling": 7442,
      "drowned": 7443,
      "clicked": 7444,
      "haven": 7445,
      "ability": 7446,
      "burgers": 7447,
      "expecting": 7448,
      "Nora": 7449,
      "laptop": 7450,
      "routine": 7451,
      "intent": 7452,
      "dryer": 7453,
      "supplied": 7454,
      "whatâ": 7455,
      "scen": 7456,
      "Cook": 7457,
      "Gabby": 7458,
      "ruff": 7459,
      "Peggy": 7460,
      "whoosh": 7461,
      "Prince": 7462,
      "astronauts": 7463,
      "Bonnie": 7464,
      "ips": 7465,
      "ggies": 7466,
      "veggies": 7467,
      "court": 7468,
      "Candy": 7469,
      "dears": 7470,
      "cupcake": 7471,
      "steering": 7472,
      "pea": 7473,
      "unpacking": 7474,
      "tidying": 7475,
      "adds": 7476,
      "wenty": 7477,
      "scul": 7478,
      "novels": 7479,
      "conduc": 7480,
      "œMaybe": 7481,
      "shor": 7482,
      "cafe": 7483,
      "statues": 7484,
      "cocoon": 7485,
      "hadow": 7486,
      "uddles": 7487,
      "chatted": 7488,
      "particularly": 7489,
      "Belle": 7490,
      "reminds": 7491,
      "appla": 7492,
      "tin": 7493,
      "ita": 7494,
      "cope": 7495,
      "conductor": 7496,
      "dollar": 7497,
      "Rudolph": 7498,
      "Tyler": 7499,
      "shorts": 7500,
      "rows": 7501,
      "dock": 7502,
      "hardest": 7503,
      "Oink": 7504,
      "Zack": 7505,
      "stretches": 7506,
      "ghosts": 7507,
      "healthier": 7508,
      "matey": 7509,
      "applause": 7510,
      "wiser": 7511,
      "floats": 7512,
      "Fairy": 7513,
      "cutter": 7514,
      "Riley": 7515,
      "Achoo": 7516,
      "Ky": 7517,
      "heaven": 7518,
      "Sup": 7519,
      "nother": 7520,
      "iff": 7521,
      "awful": 7522,
      "Apr": 7523,
      "Brad": 7524,
      "Another": 7525,
      "minded": 7526,
      "Andrew": 7527,
      "sculpt": 7528,
      "April": 7529,
      "wildflowers": 7530,
      "vour": 7531,
      "cock": 7532,
      "elect": 7533,
      "Carla": 7534,
      "Whatâ": 7535,
      "idnight": 7536,
      "overhead": 7537,
      "traded": 7538,
      "llas": 7539,
      "squished": 7540,
      "burnt": 7541,
      "combed": 7542,
      "beast": 7543,
      "carries": 7544,
      "syrup": 7545,
      "nests": 7546,
      "opinions": 7547,
      "nch": 7548,
      "bothered": 7549,
      "Again": 7550,
      "snug": 7551,
      "fascinating": 7552,
      "phones": 7553,
      "ashes": 7554,
      "gap": 7555,
      "faint": 7556,
      "experiences": 7557,
      "nights": 7558,
      "Rosa": 7559,
      "sprays": 7560,
      "umbrellas": 7561,
      "Paula": 7562,
      "container": 7563,
      "deserved": 7564,
      "killed": 7565,
      "returning": 7566,
      "Flora": 7567,
      "plo": 7568,
      "pleas": 7569,
      "serving": 7570,
      "providing": 7571,
      "target": 7572,
      "flashing": 7573,
      "Immediately": 7574,
      "born": 7575,
      "shorter": 7576,
      "œOk": 7577,
      "Liam": 7578,
      "sculpture": 7579,
      "Sw": 7580,
      "flashed": 7581,
      "tions": 7582,
      "checks": 7583,
      "weapons": 7584,
      "papa": 7585,
      "lopes": 7586,
      "Annabelle": 7587,
      "teles": 7588,
      "tearing": 7589,
      "Foxy": 7590,
      "rent": 7591,
      "ative": 7592,
      "cidents": 7593,
      "bounces": 7594,
      "Dino": 7595,
      "Life": 7596,
      "burns": 7597,
      "Melissa": 7598,
      "defeated": 7599,
      "hotter": 7600,
      "tests": 7601,
      "sprinkle": 7602,
      "compan": 7603,
      "confidence": 7604,
      "inches": 7605,
      "faith": 7606,
      "farmers": 7607,
      "glided": 7608,
      "grumbled": 7609,
      "thump": 7610,
      "Mila": 7611,
      "Accidents": 7612,
      "Sal": 7613,
      "fus": 7614,
      "stals": 7615,
      "grily": 7616,
      "telescope": 7617,
      "Sky": 7618,
      "Wooly": 7619,
      "dia": 7620,
      "sadder": 7621,
      "Wigg": 7622,
      "hiss": 7623,
      "Mu": 7624,
      "twenty": 7625,
      "acy": 7626,
      "concent": 7627,
      "trusting": 7628,
      "applauding": 7629,
      "Rufus": 7630,
      "Whoever": 7631,
      "convince": 7632,
      "clip": 7633,
      "cheated": 7634,
      "gardens": 7635,
      "vast": 7636,
      "asers": 7637,
      "pos": 7638,
      "bluebird": 7639,
      "Liza": 7640,
      "necks": 7641,
      "bats": 7642,
      "checking": 7643,
      "awhile": 7644,
      "crystals": 7645,
      "raising": 7646,
      "dee": 7647,
      "Boys": 7648,
      "Shar": 7649,
      "Barry": 7650,
      "cubs": 7651,
      "Sand": 7652,
      "€¦": 7653,
      "teams": 7654,
      "possess": 7655,
      "petting": 7656,
      "blown": 7657,
      "chall": 7658,
      "Sparkles": 7659,
      "Win": 7660,
      "craf": 7661,
      "psed": 7662,
      "collapsed": 7663,
      "extraordinary": 7664,
      "insepar": 7665,
      "inseparable": 7666,
      "flip": 7667,
      "forgives": 7668,
      "sirens": 7669,
      "challeng": 7670,
      "types": 7671,
      "munching": 7672,
      "natur": 7673,
      "example": 7674,
      "soapy": 7675,
      "Lenny": 7676,
      "œBe": 7677,
      "abra": 7678,
      "behaviour": 7679,
      "ramp": 7680,
      "shat": 7681,
      "grassho": 7682,
      "concer": 7683,
      "instrument": 7684,
      "imaginary": 7685,
      "Mona": 7686,
      "biscu": 7687,
      "prizes": 7688,
      "meows": 7689,
      "toise": 7690,
      "rowing": 7691,
      "scrub": 7692,
      "singers": 7693,
      "fet": 7694,
      "waters": 7695,
      "tempted": 7696,
      "bicycles": 7697,
      "waded": 7698,
      "storms": 7699,
      "hunting": 7700,
      "momâ": 7701,
      "sprang": 7702,
      "cooper": 7703,
      "lor": 7704,
      "illie": 7705,
      "Jose": 7706,
      "ern": 7707,
      "upside": 7708,
      "salon": 7709,
      "peeped": 7710,
      "opportunity": 7711,
      "exploration": 7712,
      "traveling": 7713,
      "adabra": 7714,
      "attitude": 7715,
      "longest": 7716,
      "conquered": 7717,
      "bom": 7718,
      "Monkey": 7719,
      "expression": 7720,
      "distracted": 7721,
      "Willy": 7722,
      "adually": 7723,
      "bride": 7724,
      "sandy": 7725,
      "Jody": 7726,
      "realizes": 7727,
      "Gray": 7728,
      "cheaper": 7729,
      "gul": 7730,
      "Bar": 7731,
      "enem": 7732,
      "acing": 7733,
      "enemies": 7734,
      "unable": 7735,
      "pills": 7736,
      "wriggled": 7737,
      "coolest": 7738,
      "sweaters": 7739,
      "necess": 7740,
      "mommies": 7741,
      "engines": 7742,
      "Midnight": 7743,
      "envelopes": 7744,
      "Tiger": 7745,
      "getic": 7746,
      "Er": 7747,
      "flock": 7748,
      "trig": 7749,
      "otters": 7750,
      "Elephant": 7751,
      "moat": 7752,
      "clearly": 7753,
      "discouraged": 7754,
      "Oliver": 7755,
      "Zee": 7756,
      "cheat": 7757,
      "swimmer": 7758,
      "tips": 7759,
      "whel": 7760,
      "whales": 7761,
      "compete": 7762,
      "reappeared": 7763,
      "Jennie": 7764,
      "chatting": 7765,
      "grasshopper": 7766,
      "passes": 7767,
      "countries": 7768,
      "quacking": 7769,
      "chin": 7770,
      "glittered": 7771,
      "robin": 7772,
      "sometime": 7773,
      "overwhel": 7774,
      "Ed": 7775,
      "common": 7776,
      "Mamma": 7777,
      "trigger": 7778,
      "patches": 7779,
      "Light": 7780,
      "Martin": 7781,
      "heels": 7782,
      "annoying": 7783,
      "Stri": 7784,
      "mattered": 7785,
      "Share": 7786,
      "details": 7787,
      "spilling": 7788,
      "inger": 7789,
      "blank": 7790,
      "enjoyable": 7791,
      "Looking": 7792,
      "strips": 7793,
      "ared": 7794,
      "crowded": 7795,
      "Te": 7796,
      "gallo": 7797,
      "tortoise": 7798,
      "baa": 7799,
      "Janet": 7800,
      "Capt": 7801,
      "local": 7802,
      "whined": 7803,
      "relaxing": 7804,
      "Captain": 7805,
      "approach": 7806,
      "Hmm": 7807,
      "ingo": 7808,
      "treas": 7809,
      "flick": 7810,
      "marking": 7811,
      "thicker": 7812,
      "erg": 7813,
      "snor": 7814,
      "yawning": 7815,
      "uniforms": 7816,
      "pip": 7817,
      "invent": 7818,
      "Joanna": 7819,
      "soundly": 7820,
      "surely": 7821,
      "cheerfully": 7822,
      "companion": 7823,
      "hangers": 7824,
      "Gra": 7825,
      "natural": 7826,
      "fond": 7827,
      "Through": 7828,
      "skies": 7829,
      "prod": 7830,
      "shallow": 7831,
      "Super": 7832,
      "becomes": 7833,
      "stur": 7834,
      "orrow": 7835,
      "outfits": 7836,
      "Sa": 7837,
      "washes": 7838,
      "spapers": 7839,
      "beetles": 7840,
      "treasured": 7841,
      "noticing": 7842,
      "squeaky": 7843,
      "BunBun": 7844,
      "Vel": 7845,
      "aboard": 7846,
      "Leah": 7847,
      "bubbly": 7848,
      "vibrant": 7849,
      "airplanes": 7850,
      "repairman": 7851,
      "lyn": 7852,
      "weighing": 7853,
      "necessary": 7854,
      "rick": 7855,
      "moonlight": 7856,
      "freezing": 7857,
      "Velvet": 7858,
      "backs": 7859,
      "Alf": 7860,
      "ix": 7861,
      "Fo": 7862,
      "iggie": 7863,
      "haircuts": 7864,
      "scrun": 7865,
      "melody": 7866,
      "leap": 7867,
      "boards": 7868,
      "swirls": 7869,
      "Rat": 7870,
      "Smo": 7871,
      "timid": 7872,
      "sincere": 7873,
      "Gold": 7874,
      "Ginger": 7875,
      "coug": 7876,
      "onde": 7877,
      "newspapers": 7878,
      "uggy": 7879,
      "Use": 7880,
      "blonde": 7881,
      "mugs": 7882,
      "bound": 7883,
      "miracle": 7884,
      "hummed": 7885,
      "erase": 7886,
      "scattering": 7887,
      "Cathy": 7888,
      "cowboys": 7889,
      "sneezes": 7890,
      "pepperoni": 7891,
      "Tomorrow": 7892,
      "faction": 7893,
      "clut": 7894,
      "Johny": 7895,
      "messes": 7896,
      "satisfaction": 7897,
      "lump": 7898,
      "oks": 7899,
      "Danger": 7900,
      "HE": 7901,
      "calmer": 7902,
      "compliment": 7903,
      "œYay": 7904,
      "squinted": 7905,
      "Avery": 7906,
      "successfully": 7907,
      "blushed": 7908,
      "sipped": 7909,
      "neys": 7910,
      "venir": 7911,
      "clue": 7912,
      "cherish": 7913,
      "Ken": 7914,
      "rink": 7915,
      "ime": 7916,
      "camel": 7917,
      "communic": 7918,
      "ketch": 7919,
      "leaking": 7920,
      "Sunshine": 7921,
      "situations": 7922,
      "souvenir": 7923,
      "occasion": 7924,
      "venture": 7925,
      "joyfully": 7926,
      "models": 7927,
      "coughed": 7928,
      "',": 7929,
      "brake": 7930,
      "positive": 7931,
      "Jasmine": 7932,
      "concentr": 7933,
      "glittery": 7934,
      "Math": 7935,
      "Tree": 7936,
      "meatballs": 7937,
      "Abra": 7938,
      "bruises": 7939,
      "weighs": 7940,
      "smartest": 7941,
      "Har": 7942,
      "explaining": 7943,
      "scenery": 7944,
      "ering": 7945,
      "bulbs": 7946,
      "alley": 7947,
      "pressing": 7948,
      "tickling": 7949,
      "More": 7950,
      "immered": 7951,
      "answering": 7952,
      "pinching": 7953,
      "Pl": 7954,
      "unfair": 7955,
      "welcoming": 7956,
      "snowy": 7957,
      "scares": 7958,
      "chill": 7959,
      "uing": 7960,
      "ying": 7961,
      "rewards": 7962,
      "possib": 7963,
      "Isabel": 7964,
      "cages": 7965,
      "talents": 7966,
      "amboo": 7967,
      "Hootie": 7968,
      "shattered": 7969,
      "roast": 7970,
      "rewarding": 7971,
      "ans": 7972,
      "hisses": 7973,
      "storing": 7974,
      "cleans": 7975,
      "rubbish": 7976,
      "''": 7977,
      "compar": 7978,
      "melons": 7979,
      "Fif": 7980,
      "pantry": 7981,
      "risk": 7982,
      "traps": 7983,
      "Chickie": 7984,
      "Tell": 7985,
      "tale": 7986,
      "practised": 7987,
      "crocodiles": 7988,
      "teapot": 7989,
      "digs": 7990,
      "Steven": 7991,
      "Girl": 7992,
      "binoc": 7993,
      "intently": 7994,
      "anny": 7995,
      "inj": 7996,
      "Chirp": 7997,
      "Nate": 7998,
      "acts": 7999,
      "sturdy": 8000,
      "endant": 8001,
      "pilots": 8002,
      "Bruce": 8003,
      "groaned": 8004,
      "Thankfully": 8005,
      "Birdie": 8006,
      "ighty": 8007,
      "Blo": 8008,
      "olf": 8009,
      "cells": 8010,
      "Should": 8011,
      "marveled": 8012,
      "Na": 8013,
      "baller": 8014,
      "umble": 8015,
      "tunes": 8016,
      "limb": 8017,
      "Want": 8018,
      "Weâ": 8019,
      "hoy": 8020,
      "horri": 8021,
      "bends": 8022,
      "weâ": 8023,
      "pipes": 8024,
      "angrily": 8025,
      "stuffing": 8026,
      "apology": 8027,
      "smoking": 8028,
      "goodness": 8029,
      "bomb": 8030,
      "unfamiliar": 8031,
      "finishes": 8032,
      "sandpit": 8033,
      "guards": 8034,
      "ketchup": 8035,
      "doorstep": 8036,
      "fireflies": 8037,
      "bubbling": 8038,
      "Lots": 8039,
      "croaked": 8040,
      "Pin": 8041,
      "bobb": 8042,
      "cris": 8043,
      "invites": 8044,
      "tentacles": 8045,
      "energetic": 8046,
      "facts": 8047,
      "Felix": 8048,
      "ream": 8049,
      "lookout": 8050,
      "meadows": 8051,
      "section": 8052,
      "runner": 8053,
      "microwave": 8054,
      "Ahoy": 8055,
      "!'.": 8056,
      "Could": 8057,
      "ey": 8058,
      "hew": 8059,
      "sweeter": 8060,
      "tugging": 8061,
      "shyly": 8062,
      "spoiling": 8063,
      "Mighty": 8064,
      "chews": 8065,
      "œWeâ": 8066,
      "exchange": 8067,
      "crou": 8068,
      "styles": 8069,
      "avi": 8070,
      "slapping": 8071,
      "Fifi": 8072,
      "stepping": 8073,
      "messages": 8074,
      "shrank": 8075,
      "strolled": 8076,
      "protection": 8077,
      "defeat": 8078,
      "consider": 8079,
      "overwhelmed": 8080,
      "stun": 8081,
      "moons": 8082,
      "Randy": 8083,
      "napped": 8084,
      "cheating": 8085,
      "certainly": 8086,
      "Vio": 8087,
      "hesitation": 8088,
      "caterpillars": 8089,
      "dou": 8090,
      "chopping": 8091,
      "ulars": 8092,
      "scribb": 8093,
      "gasps": 8094,
      "ats": 8095,
      "obst": 8096,
      "jets": 8097,
      "Play": 8098,
      "lers": 8099,
      "inju": 8100,
      "inspe": 8101,
      "popsic": 8102,
      "Gemma": 8103,
      "fade": 8104,
      "Josie": 8105,
      "circl": 8106,
      "Ra": 8107,
      "Climb": 8108,
      "Oscar": 8109,
      "underwater": 8110,
      "juic": 8111,
      "foam": 8112,
      "utter": 8113,
      "rips": 8114,
      "aston": 8115,
      "bbling": 8116,
      "pleasant": 8117,
      "binoculars": 8118,
      "Turn": 8119,
      "playhouse": 8120,
      "demanding": 8121,
      "pouch": 8122,
      "cotch": 8123,
      "shares": 8124,
      "hopscotch": 8125,
      "ballerina": 8126,
      "crouched": 8127,
      "slithered": 8128,
      "lou": 8129,
      "month": 8130,
      "cadabra": 8131,
      "thie": 8132,
      "bbit": 8133,
      "fishy": 8134,
      "Close": 8135,
      "Jackâ": 8136,
      "loyalty": 8137,
      "bamboo": 8138,
      "differently": 8139,
      "Minnie": 8140,
      "Was": 8141,
      "Bea": 8142,
      "Patrick": 8143,
      "pounced": 8144,
      "caw": 8145,
      "meaning": 8146,
      "transformed": 8147,
      "recess": 8148,
      "disappointment": 8149,
      "int": 8150,
      "THE": 8151,
      "unwrapped": 8152,
      "riverbank": 8153,
      "Ribbit": 8154,
      "shh": 8155,
      "stores": 8156,
      "Chuck": 8157,
      "squeezes": 8158,
      "electri": 8159,
      "Sandra": 8160,
      "Ms": 8161,
      "condition": 8162,
      "playdate": 8163,
      "landing": 8164,
      "Peep": 8165,
      "Allie": 8166,
      "Boun": 8167,
      "ands": 8168,
      "amused": 8169,
      "ankle": 8170,
      "snar": 8171,
      "Violet": 8172,
      "raking": 8173,
      "sweetly": 8174,
      "pokes": 8175,
      "Ravi": 8176,
      "erup": 8177,
      "fries": 8178,
      "nightmares": 8179,
      "spare": 8180,
      "cherished": 8181,
      "Tears": 8182,
      "cia": 8183,
      "whimpered": 8184,
      "teamwork": 8185,
      "snorted": 8186,
      "lull": 8187,
      "actor": 8188,
      "thrill": 8189,
      "birdy": 8190,
      "Stre": 8191,
      "Marley": 8192,
      "judges": 8193,
      "oma": 8194,
      "formation": 8195,
      "mayor": 8196,
      "Claus": 8197,
      "pts": 8198,
      "blades": 8199,
      "crickets": 8200,
      "œHow": 8201,
      "maje": 8202,
      "Wis": 8203,
      "keepers": 8204,
      "risky": 8205,
      "sacks": 8206,
      "elace": 8207,
      "shoelace": 8208,
      "cracker": 8209,
      "Jere": 8210,
      "Wilbur": 8211,
      "Pur": 8212,
      "Rita": 8213,
      "aling": 8214,
      "tickles": 8215,
      "injured": 8216,
      "gates": 8217,
      "watermelon": 8218,
      "snapping": 8219,
      "centre": 8220,
      "œDon": 8221,
      "mysteries": 8222,
      "groups": 8223,
      "thieves": 8224,
      "thest": 8225,
      "Peanut": 8226,
      "Stanley": 8227,
      "ites": 8228,
      "lumberjack": 8229,
      "peacock": 8230,
      "whir": 8231,
      "craft": 8232,
      "leans": 8233,
      "miller": 8234,
      "anie": 8235,
      "teen": 8236,
      "temptation": 8237,
      "tant": 8238,
      "warmed": 8239,
      "Mumma": 8240,
      "enemy": 8241,
      "boil": 8242,
      "uster": 8243,
      "keyhole": 8244,
      "level": 8245,
      "intelligence": 8246,
      "structures": 8247,
      "choosing": 8248,
      "joys": 8249,
      "frustration": 8250,
      "Guess": 8251,
      "hundreds": 8252,
      "bold": 8253,
      "solute": 8254,
      "stew": 8255,
      "scene": 8256,
      "Kenny": 8257,
      "ambi": 8258,
      "auntie": 8259,
      "Bambi": 8260,
      "Things": 8261,
      "banging": 8262,
      "seasons": 8263,
      "skirts": 8264,
      "Abracadabra": 8265,
      "spi": 8266,
      "swimsuits": 8267,
      "Pink": 8268,
      "Dot": 8269,
      "sleeps": 8270,
      "supporting": 8271,
      "Gw": 8272,
      "liar": 8273,
      "benches": 8274,
      "weaker": 8275,
      "computers": 8276,
      "Jodie": 8277,
      "tantrum": 8278,
      "Jona": 8279,
      "wiggling": 8280,
      "textures": 8281,
      "levers": 8282,
      "communicate": 8283,
      "Jonathan": 8284,
      "Wake": 8285,
      "stantly": 8286,
      "Wisdom": 8287,
      "enger": 8288,
      "hissing": 8289,
      "speople": 8290,
      "nicest": 8291,
      "Thump": 8292,
      "trading": 8293,
      "Ziggy": 8294,
      "Find": 8295,
      "townspeople": 8296,
      "servant": 8297,
      "electricity": 8298,
      "umbs": 8299,
      "luckiest": 8300,
      "shinier": 8301,
      "Imag": 8302,
      "ige": 8303,
      "ently": 8304,
      "alongside": 8305,
      "lush": 8306,
      "spears": 8307,
      "roller": 8308,
      "trusty": 8309,
      "writer": 8310,
      "Din": 8311,
      "experiment": 8312,
      "Fly": 8313,
      "tling": 8314,
      ",'": 8315,
      "Colin": 8316,
      "othy": 8317,
      "visible": 8318,
      "pedaling": 8319,
      "reversing": 8320,
      "Bra": 8321,
      "thumbs": 8322,
      "pples": 8323,
      "trusts": 8324,
      "quarreled": 8325,
      "prank": 8326,
      "softened": 8327,
      "hudd": 8328,
      "Toys": 8329,
      "knobs": 8330,
      "magnifying": 8331,
      "Jeremy": 8332,
      "Yog": 8333,
      "alled": 8334,
      "Bark": 8335,
      "Near": 8336,
      "kneeling": 8337,
      "complet": 8338,
      "mooed": 8339,
      "Kyle": 8340,
      "foggy": 8341,
      "whine": 8342,
      "toothbrush": 8343,
      "cops": 8344,
      "disappearing": 8345,
      "mie": 8346,
      "astonished": 8347,
      "Dra": 8348,
      "limp": 8349,
      "harvest": 8350,
      "scree": 8351,
      "\"!": 8352,
      "Using": 8353,
      "wee": 8354,
      "cases": 8355,
      "guarding": 8356,
      "Hopper": 8357,
      "Carefully": 8358,
      "Hank": 8359,
      "groom": 8360,
      "Rainbow": 8361,
      "Cho": 8362,
      "habit": 8363,
      "ala": 8364,
      "boiling": 8365,
      "worst": 8366,
      "solutely": 8367,
      "Summer": 8368,
      "udged": 8369,
      "fetched": 8370,
      "usty": 8371,
      "Buggy": 8372,
      "Buster": 8373,
      "sus": 8374,
      "amps": 8375,
      "continuing": 8376,
      "compared": 8377,
      "owns": 8378,
      "Books": 8379,
      "anced": 8380,
      "Alan": 8381,
      "Cheese": 8382,
      "Fa": 8383,
      "Three": 8384,
      "magically": 8385,
      "concerned": 8386,
      "Pop": 8387,
      "mow": 8388,
      "thew": 8389,
      "unless": 8390,
      "Jelly": 8391,
      "funn": 8392,
      "speaker": 8393,
      "motorcycles": 8394,
      "oldest": 8395,
      "creep": 8396,
      "zips": 8397,
      "Lucas": 8398,
      "bowing": 8399,
      "scow": 8400,
      "œA": 8401,
      "improving": 8402,
      "Mais": 8403,
      "revealing": 8404,
      "sensation": 8405,
      "Son": 8406,
      "wil": 8407,
      "œThanks": 8408,
      "popping": 8409,
      "kangaroos": 8410,
      "Libby": 8411,
      "cupboards": 8412,
      "poisonous": 8413,
      "character": 8414,
      "lullaby": 8415,
      "Sing": 8416,
      "Tre": 8417,
      "wheelbar": 8418,
      "cuddling": 8419,
      "doesnâ": 8420,
      "pest": 8421,
      "peak": 8422,
      "Sc": 8423,
      "vas": 8424,
      "rebuild": 8425,
      "bushy": 8426,
      "Clare": 8427,
      "rrrr": 8428,
      "Maisie": 8429,
      "JoJo": 8430,
      "Gwen": 8431,
      "fif": 8432,
      "blade": 8433,
      "embarrassing": 8434,
      "wrench": 8435,
      "range": 8436,
      "facing": 8437,
      "brains": 8438,
      "cooled": 8439,
      "journeys": 8440,
      "whirl": 8441,
      "soothing": 8442,
      "aloud": 8443,
      "guardian": 8444,
      "appearance": 8445,
      "Patches": 8446,
      "shoots": 8447,
      "puppets": 8448,
      "drying": 8449,
      "allowing": 8450,
      "Thumper": 8451,
      "mp": 8452,
      "realise": 8453,
      "narrow": 8454,
      "gress": 8455,
      "sneaks": 8456,
      "curity": 8457,
      "thunderstorm": 8458,
      "invitations": 8459,
      "Tru": 8460,
      "coughing": 8461,
      "Ria": 8462,
      "œWelcome": 8463,
      "Doctor": 8464,
      "ibly": 8465,
      "allerg": 8466,
      "canvas": 8467,
      "courageous": 8468,
      "Eat": 8469,
      "lowers": 8470,
      "bud": 8471,
      "larger": 8472,
      "Greg": 8473,
      "Silly": 8474,
      "Toto": 8475,
      "mindful": 8476,
      "deeply": 8477,
      "circled": 8478,
      "mest": 8479,
      "disaster": 8480,
      "Jennif": 8481,
      "heavily": 8482,
      "dashed": 8483,
      "sleds": 8484,
      "Lightning": 8485,
      "Jennifer": 8486,
      "wn": 8487,
      "usion": 8488,
      "angrier": 8489,
      "mast": 8490,
      "mustered": 8491,
      "knit": 8492,
      "Ant": 8493,
      "nearer": 8494,
      "Ooh": 8495,
      "till": 8496,
      "quilt": 8497,
      "blooms": 8498,
      "current": 8499,
      "roo": 8500,
      "sobbing": 8501,
      "costs": 8502,
      "honks": 8503,
      "Rock": 8504,
      "Bug": 8505,
      "caps": 8506,
      "skate": 8507,
      "medals": 8508,
      "cousins": 8509,
      "hollow": 8510,
      "completing": 8511,
      "wheelbarrow": 8512,
      "shrugs": 8513,
      "pace": 8514,
      "realizing": 8515,
      "property": 8516,
      "Bruno": 8517,
      "Skip": 8518,
      "wolves": 8519,
      "striches": 8520,
      "scoops": 8521,
      "repeats": 8522,
      "hips": 8523,
      "throne": 8524,
      "contented": 8525,
      "tempts": 8526,
      "loudest": 8527,
      "mold": 8528,
      "whipped": 8529,
      "warmest": 8530,
      "hangs": 8531,
      "flashes": 8532,
      "repairing": 8533,
      "cting": 8534,
      "attempts": 8535,
      "copied": 8536,
      "lizards": 8537,
      "Pinchy": 8538,
      "security": 8539,
      "unity": 8540,
      "lava": 8541,
      "plopped": 8542,
      "cooperate": 8543,
      "Smoke": 8544,
      "cru": 8545,
      "rails": 8546,
      "Matthew": 8547,
      "Imagine": 8548,
      "waking": 8549,
      "antern": 8550,
      "Brother": 8551,
      "heâ": 8552,
      "claw": 8553,
      "winds": 8554,
      "laws": 8555,
      "disobey": 8556,
      "tock": 8557,
      "sooner": 8558,
      "owls": 8559,
      "harmony": 8560,
      "spiky": 8561,
      "Jes": 8562,
      "ial": 8563,
      "dozed": 8564,
      "achievement": 8565,
      "lantern": 8566,
      "savor": 8567,
      "manâ": 8568,
      "preschool": 8569,
      "fights": 8570,
      "footprints": 8571,
      "flooded": 8572,
      "Ratty": 8573,
      "Fru": 8574,
      "coop": 8575,
      "allowance": 8576,
      "œThere": 8577,
      "atest": 8578,
      "glared": 8579,
      "kayaking": 8580,
      "huddled": 8581,
      "lunchtime": 8582,
      "calming": 8583,
      "theat": 8584,
      "minding": 8585,
      "incredibly": 8586,
      "isnâ": 8587,
      "Moon": 8588,
      "juiciest": 8589,
      "partment": 8590,
      "Nur": 8591,
      "ticking": 8592,
      "shave": 8593,
      "œOK": 8594,
      "hooves": 8595,
      "strokes": 8596,
      "CD": 8597,
      "foreshadow": 8598,
      "gratefully": 8599,
      "cig": 8600,
      "œWould": 8601,
      "aroma": 8602,
      "otherwise": 8603,
      "disagreement": 8604,
      "loads": 8605,
      "hatched": 8606,
      "swapped": 8607,
      "springing": 8608,
      "glistening": 8609,
      "jing": 8610,
      "soda": 8611,
      "movement": 8612,
      "woodcutter": 8613,
      "bellies": 8614,
      "seriously": 8615,
      "Flutter": 8616,
      "pled": 8617,
      "Freya": 8618,
      "Nurse": 8619,
      "Sitting": 8620,
      "seatbelt": 8621,
      "Robin": 8622,
      "Missy": 8623,
      "grump": 8624,
      "bbi": 8625,
      "speaks": 8626,
      "absolutely": 8627,
      "challenges": 8628,
      "cigaret": 8629,
      "Ami": 8630,
      "Got": 8631,
      "interrup": 8632,
      "aa": 8633,
      "lifeguard": 8634,
      "ggles": 8635,
      "Au": 8636,
      "Ber": 8637,
      "quacks": 8638,
      "theatre": 8639,
      "Father": 8640,
      "persistence": 8641,
      "caution": 8642,
      "possibilities": 8643,
      "Wolf": 8644,
      "cience": 8645,
      "Johnâ": 8646,
      "oceans": 8647,
      "admit": 8648,
      "chanted": 8649,
      "glanced": 8650,
      "bathed": 8651,
      "leys": 8652,
      "iments": 8653,
      "paste": 8654,
      "sniffled": 8655,
      "Nicky": 8656,
      "bumping": 8657,
      "Tri": 8658,
      "rocky": 8659,
      "daily": 8660,
      "lasted": 8661,
      "capture": 8662,
      "blur": 8663,
      "Kar": 8664,
      "Rick": 8665,
      "musicians": 8666,
      "magnific": 8667,
      "œAre": 8668,
      "smoothly": 8669,
      "Muffin": 8670,
      "ald": 8671,
      "blamed": 8672,
      "strated": 8673,
      "energ": 8674,
      "babys": 8675,
      "tempting": 8676,
      "rinse": 8677,
      "goggles": 8678,
      "ssy": 8679,
      "stirs": 8680,
      "stomp": 8681,
      "charged": 8682,
      "Off": 8683,
      "Ron": 8684,
      "def": 8685,
      "springtime": 8686,
      "imaginations": 8687,
      "wrig": 8688,
      "topp": 8689,
      "clam": 8690,
      "Da": 8691,
      "pollen": 8692,
      "folds": 8693,
      "desperately": 8694,
      "wax": 8695,
      "racer": 8696,
      "chatter": 8697,
      "floppy": 8698,
      "booth": 8699,
      "desks": 8700,
      "hooks": 8701,
      "bolt": 8702,
      "mers": 8703,
      "uncovered": 8704,
      "stacking": 8705,
      "stains": 8706,
      "dolly": 8707,
      "deciding": 8708,
      "passenger": 8709,
      "vinegar": 8710,
      "mesmerised": 8711,
      "pounds": 8712,
      "Joseph": 8713,
      "Olly": 8714,
      "poop": 8715,
      "Bouncy": 8716,
      "wrapper": 8717,
      "Old": 8718,
      "oray": 8719,
      "cluck": 8720,
      "progress": 8721,
      "chili": 8722,
      "cloths": 8723,
      "Carly": 8724,
      "roamed": 8725,
      "Pru": 8726,
      "messed": 8727,
      "piled": 8728,
      "process": 8729,
      "cutest": 8730,
      "iana": 8731,
      "laces": 8732,
      "dedic": 8733,
      "recommendation": 8734,
      "introducing": 8735,
      "Cow": 8736,
      "Pear": 8737,
      "hatch": 8738,
      "umed": 8739,
      "parks": 8740,
      "Puppy": 8741,
      "ulous": 8742,
      "trim": 8743,
      "flu": 8744,
      "disobeyed": 8745,
      "fooled": 8746,
      "cooed": 8747,
      "Squeak": 8748,
      "yumm": 8749,
      "desperate": 8750,
      "erts": 8751,
      "Noah": 8752,
      "obediently": 8753,
      "amongst": 8754,
      "Otherwise": 8755,
      "undone": 8756,
      "anten": 8757,
      "pecks": 8758,
      "maps": 8759,
      "conut": 8760,
      "connect": 8761,
      "babysitter": 8762,
      "Years": 8763,
      "Boy": 8764,
      "Sean": 8765,
      "ani": 8766,
      "kinder": 8767,
      "flavour": 8768,
      "yummiest": 8769,
      "Panda": 8770,
      "Juli": 8771,
      "shooed": 8772,
      "confusion": 8773,
      "hovering": 8774,
      "allergic": 8775,
      "magnificent": 8776,
      "wig": 8777,
      "hoses": 8778,
      "Gogo": 8779,
      "champ": 8780,
      "desserts": 8781,
      "kissing": 8782,
      "yuck": 8783,
      "ift": 8784,
      "purring": 8785,
      "aprons": 8786,
      "Ned": 8787,
      "Boom": 8788,
      "Black": 8789,
      "clubs": 8790,
      "alligators": 8791,
      "adv": 8792,
      "sleigh": 8793,
      "gulped": 8794,
      "coconut": 8795,
      "widely": 8796,
      "incts": 8797,
      "differences": 8798,
      "Yoga": 8799,
      "Raven": 8800,
      "wanna": 8801,
      "retri": 8802,
      "hamster": 8803,
      "hadnâ": 8804,
      "instincts": 8805,
      "Hu": 8806,
      "sno": 8807,
      "swat": 8808,
      "Mac": 8809,
      "cuc": 8810,
      "scut": 8811,
      "pres": 8812,
      "plat": 8813,
      "exhi": 8814,
      "greatest": 8815,
      "bundle": 8816,
      "Faith": 8817,
      "untangle": 8818,
      "rins": 8819,
      "comets": 8820,
      "Doll": 8821,
      "rinsed": 8822,
      "Rory": 8823,
      "compromise": 8824,
      "Instantly": 8825,
      "scratchy": 8826,
      "Nature": 8827,
      "iring": 8828,
      "silently": 8829,
      "Eve": 8830,
      "ostriches": 8831,
      "liest": 8832,
      "fived": 8833,
      "dete": 8834,
      "nibbling": 8835,
      "inny": 8836,
      "valleys": 8837,
      "Rich": 8838,
      "army": 8839,
      "los": 8840,
      "doggie": 8841,
      "bly": 8842,
      "ria": 8843,
      "creak": 8844,
      "headache": 8845,
      "drill": 8846,
      "depths": 8847,
      "performers": 8848,
      "doves": 8849,
      "handy": 8850,
      "files": 8851,
      "borrowing": 8852,
      "globe": 8853,
      "lish": 8854,
      "halves": 8855,
      "rack": 8856,
      "gladly": 8857,
      "snoring": 8858,
      "aming": 8859,
      "royal": 8860,
      "squirted": 8861,
      "biscuit": 8862,
      "Fay": 8863,
      "bait": 8864,
      "Lydia": 8865,
      "Billie": 8866,
      "lil": 8867,
      "learner": 8868,
      "Stu": 8869,
      "Tay": 8870,
      "mustn": 8871,
      "Thunder": 8872,
      "chains": 8873,
      "croak": 8874,
      "Bless": 8875,
      "Doug": 8876,
      "Piggy": 8877,
      "Rusty": 8878,
      "motions": 8879,
      "hippos": 8880,
      "challenged": 8881,
      "Puddles": 8882,
      "gummy": 8883,
      "indoors": 8884,
      "slur": 8885,
      "cine": 8886,
      "riddle": 8887,
      "carton": 8888,
      "confidently": 8889,
      "keen": 8890,
      "gradually": 8891,
      "oey": 8892,
      "pizzas": 8893,
      "?!": 8894,
      "ande": 8895,
      "gooey": 8896,
      "towns": 8897,
      "lunchbox": 8898,
      "idi": 8899,
      "Mint": 8900,
      "drip": 8901,
      "Cro": 8902,
      "lur": 8903,
      "poles": 8904,
      "softest": 8905,
      "lling": 8906,
      "bloss": 8907,
      "Grumpy": 8908,
      "shoelaces": 8909,
      "caroni": 8910,
      "ollie": 8911,
      "retrie": 8912,
      "hy": 8913,
      "droop": 8914,
      "Move": 8915,
      "Turt": 8916,
      "stings": 8917,
      "galloped": 8918,
      "toppings": 8919,
      "Fran": 8920,
      "ousy": 8921,
      "Though": 8922,
      "sharpen": 8923,
      "Biggie": 8924,
      "Tia": 8925,
      "tiring": 8926,
      "closure": 8927,
      "stacks": 8928,
      "Snap": 8929,
      "steered": 8930,
      "sends": 8931,
      "soul": 8932,
      "Ce": 8933,
      "OO": 8934,
      "boiled": 8935,
      "niece": 8936,
      "sinking": 8937,
      "tastiest": 8938,
      "tend": 8939,
      "Jimbo": 8940,
      "fuss": 8941,
      "unicorns": 8942,
      "Shall": 8943,
      "mur": 8944,
      "œWill": 8945,
      "enjoys": 8946,
      "enclosure": 8947,
      "freely": 8948,
      "ribbit": 8949,
      "crafts": 8950,
      "science": 8951,
      "peacefulness": 8952,
      "dumb": 8953,
      "uel": 8954,
      "boyâ": 8955,
      "scrubbing": 8956,
      "Ahh": 8957,
      "feathered": 8958,
      "route": 8959,
      "hovered": 8960,
      "crushed": 8961,
      "ality": 8962,
      "sphere": 8963,
      "automobiles": 8964,
      "Mousy": 8965,
      "god": 8966,
      "Stand": 8967,
      "pecking": 8968,
      "brakes": 8969,
      "rooster": 8970,
      "Congratul": 8971,
      "Sid": 8972,
      "earrings": 8973,
      "guesses": 8974,
      "scrunched": 8975,
      "gorge": 8976,
      "hates": 8977,
      "mashed": 8978,
      "Lucyâ": 8979,
      "occasions": 8980,
      "Steph": 8981,
      "lilies": 8982,
      "Congratulations": 8983,
      "stinky": 8984,
      "rider": 8985,
      "beeping": 8986,
      "Down": 8987,
      "lightly": 8988,
      "organised": 8989,
      "Di": 8990,
      "Yel": 8991,
      "leaped": 8992,
      "Dee": 8993,
      "Mister": 8994,
      "whizz": 8995,
      "regularly": 8996,
      "stor": 8997,
      "dusted": 8998,
      "Pizz": 8999,
      "fail": 9000,
      "snuggling": 9001,
      "hunger": 9002,
      "winners": 9003,
      "fashionable": 9004,
      "restoring": 9005,
      "plumber": 9006,
      "taps": 9007,
      "pounding": 9008,
      "Wal": 9009,
      "lee": 9010,
      "umn": 9011,
      "welve": 9012,
      "ooh": 9013,
      "dled": 9014,
      "macaroni": 9015,
      "gorgeous": 9016,
      "deserves": 9017,
      "Caroline": 9018,
      "Pizza": 9019,
      "Prom": 9020,
      "hare": 9021,
      "dripped": 9022,
      "aly": 9023,
      "Willie": 9024,
      "Pearl": 9025,
      "Shadow": 9026,
      "oned": 9027,
      "department": 9028,
      "carefree": 9029,
      "stroller": 9030,
      "whines": 9031,
      "softness": 9032,
      "whiskers": 9033,
      "halfway": 9034,
      "enthusiastically": 9035,
      "Drink": 9036,
      "builders": 9037,
      "Roo": 9038,
      "scores": 9039,
      "tents": 9040,
      "arning": 9041,
      "shots": 9042,
      "cere": 9043,
      "slight": 9044,
      "helicopters": 9045,
      "horrible": 9046,
      "platform": 9047,
      "Nor": 9048,
      "Belie": 9049,
      "majestic": 9050,
      "Aw": 9051,
      "Dina": 9052,
      "reck": 9053,
      "suck": 9054,
      "œMummy": 9055,
      "listener": 9056,
      "guided": 9057,
      "service": 9058,
      "peeks": 9059,
      "Chew": 9060,
      "Yellow": 9061,
      "leng": 9062,
      "woken": 9063,
      "drey": 9064,
      "ordering": 9065,
      "Audrey": 9066,
      "Clo": 9067,
      "brightened": 9068,
      "passion": 9069,
      "vacu": 9070,
      "mischief": 9071,
      "Shoo": 9072,
      "Heidi": 9073,
      "tons": 9074,
      "Dis": 9075,
      "Lay": 9076,
      "Mus": 9077,
      "nug": 9078,
      "nations": 9079,
      "rags": 9080,
      "shaky": 9081,
      "Johnnie": 9082,
      "ladybird": 9083,
      "fans": 9084,
      "aring": 9085,
      "owning": 9086,
      "mats": 9087,
      "Willow": 9088,
      "Wiggly": 9089,
      "Purple": 9090,
      "Cars": 9091,
      "snip": 9092,
      "Lemon": 9093,
      "furious": 9094,
      "dives": 9095,
      "rods": 9096,
      "information": 9097,
      "handles": 9098,
      "fris": 9099,
      "Joanne": 9100,
      "Pi": 9101,
      "access": 9102,
      "nightstand": 9103,
      "zookeepers": 9104,
      "crunch": 9105,
      "pearls": 9106,
      "scowled": 9107,
      "ula": 9108,
      "invol": 9109,
      "cul": 9110,
      "tone": 9111,
      "unlocking": 9112,
      "sens": 9113,
      "Susy": 9114,
      "Stretch": 9115,
      "ics": 9116,
      "Copper": 9117,
      "adjust": 9118,
      "displaying": 9119,
      "Matty": 9120,
      "Du": 9121,
      "Gail": 9122,
      "Wr": 9123,
      "pads": 9124,
      "ratt": 9125,
      "community": 9126,
      "exercising": 9127,
      "Anything": 9128,
      "actors": 9129,
      "Taylor": 9130,
      "Com": 9131,
      "twelve": 9132,
      "tot": 9133,
      "etah": 9134,
      "overheard": 9135,
      "ridge": 9136,
      "slot": 9137,
      "invisible": 9138,
      "rightful": 9139,
      "ancing": 9140,
      "Ding": 9141,
      "Jemma": 9142,
      "ilar": 9143,
      "devast": 9144,
      "lighting": 9145,
      "sweetness": 9146,
      "Isabella": 9147,
      "cinema": 9148,
      "Gl": 9149,
      "Park": 9150,
      "Ze": 9151,
      "smash": 9152,
      "illas": 9153,
      "proved": 9154,
      "tongues": 9155,
      "Hooray": 9156,
      "cellent": 9157,
      "Orange": 9158,
      "Peace": 9159,
      "20": 9160,
      "Vic": 9161,
      "suspic": 9162,
      "Ama": 9163,
      "igner": 9164,
      "cheetah": 9165,
      "praise": 9166,
      "palms": 9167,
      "Friendship": 9168,
      "nudged": 9169,
      "state": 9170,
      "Chicky": 9171,
      "clips": 9172,
      "ssssssss": 9173,
      "Bernie": 9174,
      "boarded": 9175,
      "Wise": 9176,
      "beaks": 9177,
      "heights": 9178,
      "'.\"": 9179,
      "œGo": 9180,
      "fences": 9181,
      "glows": 9182,
      "competing": 9183,
      "mound": 9184,
      "Marcy": 9185,
      "striking": 9186,
      "contained": 9187,
      "devastated": 9188,
      "Kara": 9189,
      "prof": 9190,
      "untangled": 9191,
      "eyed": 9192,
      "dedication": 9193,
      "stalk": 9194,
      "panting": 9195,
      "caves": 9196,
      "Animal": 9197,
      "dining": 9198,
      "frightening": 9199,
      "Kai": 9200,
      "complimented": 9201,
      "carri": 9202,
      "€™.": 9203,
      "entering": 9204,
      "servants": 9205,
      "funniest": 9206,
      "enchanted": 9207,
      "anybody": 9208,
      "Kathy": 9209,
      "Mara": 9210,
      "ko": 9211,
      "atmo": 9212,
      "detective": 9213,
      "Promise": 9214,
      "atmosphere": 9215,
      "jaw": 9216,
      "descri": 9217,
      "Greta": 9218,
      "peels": 9219,
      "Flash": 9220,
      "champion": 9221,
      "carn": 9222,
      "offers": 9223,
      "farthest": 9224,
      "chooses": 9225,
      "Dinner": 9226,
      "Pig": 9227,
      "shimmered": 9228,
      "values": 9229,
      "Alfie": 9230,
      "thed": 9231,
      "Timothy": 9232,
      "threads": 9233,
      "trailer": 9234,
      "Bailey": 9235,
      "carnival": 9236,
      "Sil": 9237,
      "mushy": 9238,
      "ducklings": 9239,
      "solid": 9240,
      "batch": 9241,
      "Mick": 9242,
      "mend": 9243,
      "icking": 9244,
      "ousel": 9245,
      "priest": 9246,
      "Believe": 9247,
      "nuggets": 9248,
      "lon": 9249,
      "plank": 9250,
      "belief": 9251,
      "pancake": 9252,
      "Turtle": 9253,
      "totally": 9254,
      "Cher": 9255,
      "carousel": 9256,
      "pairs": 9257,
      "Chess": 9258,
      "managing": 9259,
      "Hor": 9260,
      "Rel": 9261,
      "farms": 9262,
      "lakes": 9263,
      "fiercely": 9264,
      "backward": 9265,
      "crispy": 9266,
      "energized": 9267,
      "Eating": 9268,
      "ody": 9269,
      "whether": 9270,
      "Mole": 9271,
      "Birds": 9272,
      "sleeve": 9273,
      "sion": 9274,
      "utumn": 9275,
      "deck": 9276,
      "tanks": 9277,
      "gorillas": 9278,
      "weights": 9279,
      "dips": 9280,
      "sparrow": 9281,
      "rumbled": 9282,
      "Monster": 9283,
      "presence": 9284,
      "sizz": 9285,
      "antlers": 9286,
      "blessed": 9287,
      "squawked": 9288,
      "exhibit": 9289,
      "twirls": 9290,
      "Geor": 9291,
      "Swim": 9292,
      "lasers": 9293,
      "howl": 9294,
      "White": 9295,
      "mates": 9296,
      "popsicle": 9297,
      "birdseed": 9298,
      "parking": 9299,
      "smoother": 9300,
      "spirits": 9301,
      "length": 9302,
      "suspicious": 9303,
      "damp": 9304,
      "ertain": 9305,
      "vests": 9306,
      "aids": 9307,
      "Sundays": 9308,
      "winks": 9309,
      "Dro": 9310,
      "seeking": 9311,
      "Wherever": 9312,
      "Goldie": 9313,
      "Fla": 9314,
      "birdâ": 9315,
      "arrie": 9316,
      "Bree": 9317,
      "Ellen": 9318,
      "fection": 9319,
      "Rosy": 9320,
      "considerate": 9321,
      "œWait": 9322,
      "twitched": 9323,
      "camps": 9324,
      "arrange": 9325,
      "frisbee": 9326,
      "reality": 9327,
      "Cookies": 9328,
      "atop": 9329,
      "vit": 9330,
      "commotion": 9331,
      "Alison": 9332,
      "threatened": 9333,
      "Kelse": 9334,
      "homeless": 9335,
      "tripping": 9336,
      "skips": 9337,
      "Isla": 9338,
      "attaching": 9339,
      "ceremon": 9340,
      "Kelsey": 9341,
      "practising": 9342,
      "handlebars": 9343,
      "wrecked": 9344,
      "Syl": 9345,
      "oars": 9346,
      "plow": 9347,
      "Bees": 9348,
      "designer": 9349,
      "cruel": 9350,
      "Tra": 9351,
      "troll": 9352,
      "ripples": 9353,
      "ably": 9354,
      "delightful": 9355,
      "Whoa": 9356,
      "asy": 9357,
      "skinny": 9358,
      "solutions": 9359,
      "ceremony": 9360,
      "Cleaning": 9361,
      "herd": 9362,
      "nestled": 9363,
      "elders": 9364,
      "sells": 9365,
      "scrape": 9366,
      "Nibbles": 9367,
      "Oak": 9368,
      "Pen": 9369,
      "tink": 9370,
      "eliness": 9371,
      "suggests": 9372,
      "grumble": 9373,
[...]
